{"!":0,"\"":1,"#":2,"$":3,"%":4,"&":5,"'":6,"(":7,")":8,"*":9,"+":10,",":11,"-":12,".":13,"/":14,"0":15,"1":16,"2":17,"3":18,"4":19,"5":20,"6":21,"7":22,"8":23,"9":24,":":25,";":26,"<":27,"=":28,">":29,"?":30,"@":31,"A":32,"B":33,"C":34,"D":35,"E":36,"F":37,"G":38,"H":39,"I":40,"J":41,"K":42,"L":43,"M":44,"N":45,"O":46,"P":47,"Q":48,"R":49,"S":50,"T":51,"U":52,"V":53,"W":54,"X":55,"Y":56,"Z":57,"[":58,"\\":59,"]":60,"^":61,"_":62,"`":63,"a":64,"b":65,"c":66,"d":67,"e":68,"f":69,"g":70,"h":71,"i":72,"j":73,"k":74,"l":75,"m":76,"n":77,"o":78,"p":79,"q":80,"r":81,"s":82,"t":83,"u":84,"v":85,"w":86,"x":87,"y":88,"z":89,"{":90,"|":91,"}":92,"~":93,"¡":94,"¢":95,"£":96,"¤":97,"¥":98,"¦":99,"§":100,"¨":101,"©":102,"ª":103,"«":104,"¬":105,"®":106,"¯":107,"°":108,"±":109,"²":110,"³":111,"´":112,"µ":113,"¶":114,"·":115,"¸":116,"¹":117,"º":118,"»":119,"¼":120,"½":121,"¾":122,"¿":123,"À":124,"Á":125,"Â":126,"Ã":127,"Ä":128,"Å":129,"Æ":130,"Ç":131,"È":132,"É":133,"Ê":134,"Ë":135,"Ì":136,"Í":137,"Î":138,"Ï":139,"Ð":140,"Ñ":141,"Ò":142,"Ó":143,"Ô":144,"Õ":145,"Ö":146,"×":147,"Ø":148,"Ù":149,"Ú":150,"Û":151,"Ü":152,"Ý":153,"Þ":154,"ß":155,"à":156,"á":157,"â":158,"ã":159,"ä":160,"å":161,"æ":162,"ç":163,"è":164,"é":165,"ê":166,"ë":167,"ì":168,"í":169,"î":170,"ï":171,"ð":172,"ñ":173,"ò":174,"ó":175,"ô":176,"õ":177,"ö":178,"÷":179,"ø":180,"ù":181,"ú":182,"û":183,"ü":184,"ý":185,"þ":186,"ÿ":187,"Ā":188,"ā":189,"Ă":190,"ă":191,"Ą":192,"ą":193,"Ć":194,"ć":195,"Ĉ":196,"ĉ":197,"Ċ":198,"ċ":199,"Č":200,"č":201,"Ď":202,"ď":203,"Đ":204,"đ":205,"Ē":206,"ē":207,"Ĕ":208,"ĕ":209,"Ė":210,"ė":211,"Ę":212,"ę":213,"Ě":214,"ě":215,"Ĝ":216,"ĝ":217,"Ğ":218,"ğ":219,"Ġ":220,"ġ":221,"Ģ":222,"ģ":223,"Ĥ":224,"ĥ":225,"Ħ":226,"ħ":227,"Ĩ":228,"ĩ":229,"Ī":230,"ī":231,"Ĭ":232,"ĭ":233,"Į":234,"į":235,"İ":236,"ı":237,"Ĳ":238,"ĳ":239,"Ĵ":240,"ĵ":241,"Ķ":242,"ķ":243,"ĸ":244,"Ĺ":245,"ĺ":246,"Ļ":247,"ļ":248,"Ľ":249,"ľ":250,"Ŀ":251,"ŀ":252,"Ł":253,"ł":254,"Ń":255,"er":256,"on":257,"in":258,"re":259,"at":260,"st":261,"ĠĠ":262,"or":263,"Ġt":264,"en":265,"se":266,"le":267,"al":268,"ion":269,"Ġ=":270,"an":271,"ar":272,"et":273,"he":274,"ct":275,"it":276,"de":277,"Ġ{":278,"Ġc":279,"ce":280,"is":281,"ro":282,");":283,"ur":284,"me":285,"ing":286,"Ġn":287,"Ġf":288,"ent":289,"ĠĠĠĠ":290,"un":291,"if":292,"ss":293,"ate":294,"ut":295,"()":296,"il":297,"Ġa":298,"ic":299,"Ġthe":300,"lo":301,"pe":302,"ue":303,"ul":304,"ex":305,"ed":306,"Ġs":307,"Ġ(":308,"ret":309,"Ġp":310,"mp":311,"urn":312,"get":313,"ame":314,"Ġb":315,"return":316,"ck":317,"St":318,"ol":319,"Ġin":320,"id":321,"//":322,"Ġo":323,"Ġ'":324,"ad":325,"es":326,"Ġ\"":327,"pt":328,"ab":329,"ri":330,"Ġm":331,"ag":332,"Ġw":333,"th":334,"ode":335,"el":336,"Ġre":337,"err":338,"In":339,"Ġd":340,"ch":341,"ot":342,"ra":343,"ig":344,"ring":345,"ype":346,"ation":347,"ction":348,"--":349,"ist":350,"ort":351,"Ġto":352,"as":353,"',":354,"ew":355,"con":356,"able":357,"Ġst":358,"and":359,"\",":360,"ption":361,"ub":362,"Ġth":363,"ap":364,"um":365,"om":366,"Ġ:":367,"am":368,"Con":369,"(\"":370,"Ġv":371,"ile":372,"sel":373,"Re":374,"ert":375,"self":376,"la":377,"Ex":378,"up":379,"set":380,"ata":381,"Ġerr":382,"ult":383,"Ġis":384,"te":385,"ers":386,"ext":387,"qu":388,"int":389,"alue":390,"che":391,"li":392,"us":393,"ĠT":394,"Name":395,"end":396,"lic":397,"ve":398,"ey":399,"Ġ@":400,"def":401,"imp":402,"ect":403,"age":404,"ho":405,"Ġof":406,"ĠĠĠĠĠĠĠĠ":407,"ver":408,"co":409,"ime":410,"String":411,"res":412,"ment":413,"ter":414,"ull":415,"Ġcon":416,"par":417,"for":418,"))":419,"Ġ[":420,"();":421,"Ġ:=":422,"all":423,"Ġ+":424,"ith":425,"this":426,"Ġ*":427,"vi":428,"Ġe":429,"iz":430,"import":431,"Ġ!":432,"ath":433,"unction":434,"fig":435,"ase":436,"Ġfor":437,"fo":438,"ject":439,"Ġl":440,"),":441,"to":442,"Ġh":443,"rom":444,"Ġ=>":445,"('":446,"**":447,"name":448,"est":449,"der":450,"Ġnew":451,"Ġ$":452,"Ġ0":453,"ĠS":454,"art":455,"Ġor":456,"our":457,"po":458,"->":459,"rue":460,"----":461,"Type":462,"ĠA":463,"Id":464,"ack":465,"Ġbe":466,"},":467,"ublic":468,"ĠC":469,"Ġ1":470,"rop":471,"rr":472,"Ġnil":473,"one":474,"ception":475,"ge":476,"Ġthis":477,"ource":478,"Ġ!=":479,"Ġ==":480,"row":481,"ser":482,"Lo":483,"Err":484,"ran":485,"De":486,"que":487,"\"\"":488,"nt":489,"ite":490,"ir":491,"lass":492,"ass":493,"ow":494,"Ġex":495,"ain":496,"ire":497,"public":498,"ĠĠĠ":499,"put":500,"per":501,"key":502,"text":503,"Ġand":504,"ry":505,"inal":506,"Exception":507,"\")":508,"bject":509,"param":510,"var":511,"im":512,"unt":513,"alse":514,"):":515,"ray":516,"Ġnot":517,"dex":518,"ance":519,"ht":520,"Ġnull":521,"Res":522,"use":523,"Ġ_":524,"oo":525,"ĠI":526,"ure":527,"type":528,"Error":529,"ER":530,"atch":531,"log":532,"ine":533,"ĠP":534,"ore":535,"00":536,"Ġg":537,"reate":538,"unc":539,"act":540,"List":541,"ma":542,"od":543,"vice":544,"Ġ<":545,"quest":546,").":547,"/**":548,"ault":549,"ĠN":550,"Ġif":551,"lient":552,"out":553,"],":554,"*/":555,"dd":556,"ize":557,"lock":558,"omm":559,"pro":560,"ec":561,"ress":562,"ust":563,"uil":564,"op":565,"ition":566,"Ġget":567,"ity":568,"ache":569,"ly":570,"._":571,"Ġ&":572,"ator":573,"assert":574,"ĠO":575,"Ġres":576,"arg":577,"omp":578,"vent":579,"ĠF":580,"val":581,"Data":582,"port":583,"Ġfunction":584,"Ġself":585,"ff":586,"Ġan":587,"Ġon":588,"ay":589,"ork":590,"oc":591,"ory":592,"Ġde":593,"ind":594,"Ġj":595,"form":596,"ĠM":597,"ery":598,"rent":599,"date":600,"().":601,"cess":602,"ID":603,"ON":604,"eld":605,"ive":606,"else":607,"Ġtrue":608,"ield":609,"ob":610,"string":611,"Ġ`":612,"riv":613,"ptions":614,"Key":615,"add":616,"heck":617,"Value":618,"Ġwh":619,"lect":620,"ak":621,"ies":622,"Ser":623,"pect":624,"qual":625,"Ġvalue":626,"ask":627,"Ġfrom":628,"To":629,"cri":630,"Ch":631,"data":632,"new":633,"RE":634,"(),":635,"Ġse":636,"Se":637,"stance":638,"Ġfalse":639,"IN":640,"ger":641,"pp":642,"Ġthat":643,"test":644,"File":645,"ial":646,"av":647,"Ġas":648,"Config":649,"col":650,"pon":651,"und":652,"mo":653,"rans":654,"Ġerror":655,"En":656,"ule":657,"tain":658,"Ġ-":659,"ord":660,"rivate":661,"low":662,"func":663,"value":664,"ip":665,"Info":666,"Ġwith":667,"Ġit":668,"umn":669,"ill":670,"ersion":671,"odel":672,"Ġ2":673,"ber":674,"pa":675,"ropert":676,"Ġstat":677,"Ġpro":678,"tt":679,"Ġr":680,"Pro":681,"ĠD":682,"Un":683,"ug":684,"default":685,"em":686,"ST":687,"ll":688,"Path":689,"State":690,"roup":691,"Ar":692,"ponse":693,"ann":694,"Ġch":695,"oid":696,"private":697,"array":698,"Col":699,"sh":700,"tent":701,"__":702,"const":703,"ink":704,"Ġ%":705,"\":":706,"pec":707,"ĠB":708,"code":709,"')":710,"Ġstring":711,"())":712,"loc":713,"ĠL":714,"Ġby":715,"let":716,"lement":717,"Ġname":718,"iv":719,"..":720,"file":721,"ĠString":722,"Time":723,"quire":724,"class":725,"Set":726,"Ġi":727,"app":728,"());":729,"Ġfile":730,"lean":731,"':":732,"hod":733,"\"\"\"":734,"Ġun":735,"ign":736,"ethod":737,"ument":738,"ong":739,"yn":740,"cl":741,"ast":742,"aram":743,"--------":744,"Ġset":745,"ail":746,"uld":747,"Ġelse":748,"ute":749,"eng":750,"ssage":751,"AT":752,"ener":753,"\");":754,"Ġuse":755,"ifi":756,"ax":757,"ix":758,"args":759,"ream":760,"Ġ&&":761,"Ġwe":762,"urrent":763,"LE":764,"($":765,"']":766,"ach":767,"ĠR":768,"['":769,"ref":770,"read":771,"Ġtest":772,"Ġfinal":773,"ĠThe":774,"load":775,"red":776,"Stat":777,"ens":778,"Ġreturn":779,"});":780,"Ġorg":781,"ĠW":782,"ool":783,"Ġstatic":784,"Node":785,"ms":786,"ash":787,"For":788,"Ġ|":789,"By":790,"EN":791,"Ġtype":792,"user":793,"rows":794,"Ġal":795,"config":796,"Context":797,"Map":798,"pr":799,"Ġint":800,"Qu":801,"Ġ{@":802,"ence":803,"Get":804,"ded":805,"own":806,"Ġvoid":807,"ru":808,"Ġkey":809,"rib":810,"::":811,"path":812,"oolean":813,"ql":814,"ere":815,"work":816,"Ġdata":817,"os":818,"final":819,"Ġ[]":820,"util":821,"ant":822,"ctx":823,"uth":824,"ne":825,"ength":826,"ary":827,"));":828,"ount":829,"io":830,"function":831,"hould":832,"result":833,"ĠIn":834,"umber":835,"uration":836,"Request":837,"ated":838,"ee":839,"ader":840,"of":841,"OR":842,"roperty":843,"ĠH":844,"ise":845,"Def":846,"Object":847,"Table":848,"ĠĠĠĠĠĠĠ":849,"Ġtime":850,"amp":851,"press":852,"ang":853,"ty":854,"com":855,"att":856,"Test":857,"point":858,"An":859,"uild":860,"Equal":861,"ssion":862,"TI":863,"expect":864,"Ġ}":865,"ost":866,"ava":867,"lete":868,"link":869,"Log":870,"Ġcol":871,"ave":872,"back":873,"ense":874,"Ġare":875,"pl":876,"ken":877,"Client":878,"index":879,"ight":880,"mit":881,"update":882,"Ġdo":883,"anag":884,"query":885,"Ġwill":886,"Ġ?":887,"rap":888,"ound":889,"js":890,"Comp":891,"==":892,"Event":893,"ĠNone":894,"AL":895,"pla":896,"ard":897,"ĠU":898,"create":899,"case":900,"ait":901,"uilder":902,"Ġme":903,"valid":904,"ccess":905,"[]":906,"abel":907,"=\"":908,"64":909,"scri":910,"action":911,"ride":912,"rite":913,"ecut":914,"AR":915,"ync":916,"from":917,"time":918,"Ġ['":919,"ake":920,"Index":921,"rig":922,"Service":923,"SE":924,"verride":925,"chema":926,"line":927,"node":928,"Ġcomp":929,"ok":930,"ruct":931,"annel":932,"ree":933,"Query":934,"Met":935,"be":936,"Add":937,"Check":938,"mt":939,"min":940,"Ġlist":941,"lection":942,"ommand":943,"Ġ||":944,"01":945,">>":946,"Ġser":947,"ange":948,"state":949,"})":950,"fa":951,"Ġall":952,"</":953,"Ġapp":954,"Ġid":955,"Ġresult":956,"anager":957,"Ġcreate":958,"reg":959,"ild":960,"oin":961,"arget":962,"ME":963,"'],":964,"##":965,"irect":966,"ilter":967,"uff":968,"With":969,"lose":970,"ommit":971,"count":972,"start":973,"ther":974,"ps":975,"};":976,"Ġnode":977,"error":978,"check":979,"iss":980,"comp":981,"emp":982,"Ġconfig":983,"Ġ>":984,"Response":985,"'s":986,"andle":987,"ric":988,"Not":989,"pace":990,"odule":991,"Ġ3":992,"Ġadd":993,"Override":994,"';":995,"alid":996,"Ġk":997,"Status":998,"Th":999,"met":1000,"Up":1001,"ud":1002,"Ġ===":1003,"Me":1004,"ched":1005,"ings":1006,"tainer":1007,"ĠTh":1008,"rame":1009,"Param":1010,"Ġy":1011,"DE":1012,"iter":1013,"ations":1014,"ac":1015,"');":1016,"fer":1017,"Ġobject":1018,"ĠĠĠĠĠ":1019,"ĠĠĠĠĠĠĠĠĠĠĠĠĠĠĠĠ":1020,"Version":1021,"ock":1022,"sql":1023,"inter":1024,"by":1025,"yst":1026,"].":1027,"Ġdefault":1028,"cond":1029,"irst":1030,"range":1031,"ĠRe":1032,"try":1033,"client":1034,"ĠG":1035,"LO":1036,"Ġarray":1037,"Ġ//":1038,"ystem":1039,"Ġen":1040,"led":1041,"pre":1042,"tern":1043,"UR":1044,"Field":1045,"stat":1046,"Ġspec":1047,"ler":1048,"late":1049,"Ent":1050,"map":1051,"Class":1052,"Ġout":1053,"sc":1054,"mat":1055,"Ġcheck":1056,"ific":1057,"vel":1058,"lob":1059,"TE":1060,"Loc":1061,"AN":1062,"ify":1063,"are":1064,"require":1065,"Des":1066,"we":1067,"Ġcom":1068,"'t":1069,"ux":1070,"str":1071,"Ġ)":1072,"move":1073,"Ġcan":1074,"Ġpath":1075,"arch":1076,"length":1077,"ote":1078,"orage":1079,"Default":1080,"til":1081,"format":1082,"face":1083,"size":1084,"New":1085,"He":1086,"Ġrequest":1087,"://":1088,"Ġshould":1089,"select":1090,"adata":1091,"Array":1092,"di":1093,"model":1094,"=>":1095,"ocument":1096,"Ġtable":1097,"ib":1098,"options":1099,"Manager":1100,"Result":1101,"Ġ(!":1102,"Size":1103,"icense":1104,"htt":1105,"cur":1106,"Ġlen":1107,"ions":1108,"Stream":1109,"fs":1110,"net":1111,"eturn":1112,"arn":1113,"sed":1114,"Util":1115,"Group":1116,"onent":1117,"host":1118,"pos":1119,"throw":1120,"iew":1121,"Ġstate":1122,"uster":1123,"ribut":1124,"nection":1125,"ĠIf":1126,"actory":1127,"list":1128,"pack":1129,"Pl":1130,"erm":1131,"None":1132,"Ġ/":1133,"bo":1134,"upport":1135,"Resource":1136,"Ġclass":1137,"ĠV":1138,"ified":1139,"table":1140,"Ġcall":1141,"Ġindex":1142,"olic":1143,"Ġ);":1144,"Ġinstance":1145,"her":1146,"ttp":1147,"])":1148,"last":1149,"RO":1150,"Ġro":1151,"api":1152,"Ġhas":1153,"db":1154,"serv":1155,"cept":1156,"'=>":1157,"Le":1158,"ren":1159,"ha":1160,"Ġat":1161,"Ġjava":1162,"'=>'":1163,"tes":1164,"tra":1165,"ĠĠĠĠĠĠĠĠĠĠĠ":1166,"Message":1167,"sub":1168,"old":1169,"ssert":1170,"item":1171,"Column":1172,"md":1173,"Ġhe":1174,"uffer":1175,"ample":1176,"Ġle":1177,"with":1178,"Ġsource":1179,"Ġ->":1180,"[\"":1181,"mpty":1182,"tro":1183,"AC":1184,"Ġrange":1185,"ner":1186,"Block":1187,"ual":1188,"Code":1189,"enc":1190,"ĠThis":1191,"andler":1192,"wait":1193,"pression":1194,"ithub":1195,"Ġext":1196,"Ġwhen":1197,"info":1198,"Arg":1199,"ron":1200,"py":1201,"SS":1202,"On":1203,"ĠLicense":1204,"True":1205,"right":1206,"ally":1207,"equal":1208,"request":1209,"Options":1210,"current":1211,"iable":1212,"Ġlog":1213,"apache":1214,"url":1215,"bug":1216,"cope":1217,"ml":1218,"];":1219,"Ġmethod":1220,"\";":1221,"space":1222,"Ġx":1223,"iled":1224,"IT":1225,"ized":1226,"Ġuser":1227,"github":1228,"fore":1229,"Builder":1230,"Reg":1231,"ags":1232,"ined":1233,"eter":1234,"ft":1235,"opy":1236,"ransaction":1237,"Ġ()":1238,"instance":1239,"Ġ4":1240,"Ġstart":1241,"Ġcontext":1242,"abled":1243,"Ġimport":1244,"Or":1245,"ins":1246,"artition":1247,"peration":1248,"cord":1249,"ifier":1250,"ume":1251,"field":1252,"Store":1253,"Ġno":1254,"run":1255,"Ġ__":1256,"ep":1257,"context":1258,"\\\\":1259,"Ġso":1260,"Ġsub":1261,"word":1262,"ou":1263,"ich":1264,"Count":1265,"olicy":1266,"ca":1267,"tin":1268,"Lock":1269,"Ġused":1270,"Cache":1271,"User":1272,"Ġboolean":1273,"build":1274,"Ġparam":1275,"Content":1276,"Ġhave":1277,"ages":1278,"object":1279,"assertEqual":1280,"print":1281,"Ġend":1282,"Of":1283,"pi":1284,"Ġthrows":1285,"vid":1286,"input":1287,"init":1288,"Ġclient":1289,"roperties":1290,"Task":1291,"Ġ#":1292,"perator":1293,"Null":1294,"----------------":1295,"Descri":1296,"ark":1297,"true":1298,"UT":1299,"...":1300,"rc":1301,"call":1302,"lay":1303,"store":1304,"Var":1305,"gr":1306,"AP":1307,"Ġne":1308,"DO":1309,"loat":1310,"place":1311,"10":1312,"ors":1313,"Server":1314,"ĠE":1315,"ĠJ":1316,"Row":1317,"{}":1318,"Ġent":1319,"Instance":1320,"LI":1321,"App":1322,"Ġloc":1323,"Ġevent":1324,"Source":1325,"Out":1326,"expected":1327,"Ġoptions":1328,"not":1329,"Ġcurrent":1330,"dis":1331,"group":1332,"max":1333,"core":1334,"its":1335,"column":1336,"bserv":1337,"Att":1338,"unk":1339,"({":1340,"Ġupdate":1341,"reak":1342,"Update":1343,"event":1344,"Ġdis":1345,"nect":1346,"atal":1347,"And":1348,"arse":1349,"Factory":1350,"Ġexist":1351,"resource":1352,"lication":1353,"mb":1354,"rops":1355,"raise":1356,"Function":1357,"Is":1358,"Ġwhich":1359,"temp":1360,"pend":1361,"Ġblock":1362,"Model":1363,"ptional":1364,"\"),":1365,"Ġmap":1366,"All":1367,"itor":1368,"Execut":1369,"luster":1370,"tx":1371,"ke":1372,"CE":1373,"fter":1374,"Ġli":1375,"json":1376,"lis":1377,"ENT":1378,"ical":1379,"vert":1380,"Ġmet":1381,"Ite":1382,"base":1383,"Tra":1384,"dir":1385,"Ġrun":1386,"cket":1387,"Ġ\\":1388,"Ġvalues":1389,"Ġrequire":1390,"Inter":1391,"Const":1392,"Ġany":1393,"No":1394,"ING":1395,"From":1396,"The":1397,"tains":1398,"how":1399,"irectory":1400,"bservable":1401,"Element":1402,"Dis":1403,"Ġ{}":1404,"Al":1405,"wh":1406,"indow":1407,"Ġ*/":1408,"ribute":1409,"null":1410,"clu":1411,"older":1412,"Utils":1413,"UL":1414,"oint":1415,"server":1416,"CO":1417,"pts":1418,"pc":1419,"ĉĉ":1420,"SI":1421,"Ġonly":1422,"ook":1423,"ush":1424,"wargs":1425,"task":1426,"Ġreg":1427,"df":1428,"pen":1429,"eters":1430,"ses":1431,"Ġ.":1432,"orm":1433,"Ġpre":1434,"Ġwork":1435,"Ġnumber":1436,"ister":1437,"([":1438,"ick":1439,"32":1440,"has":1441,"End":1442,"\"]":1443,"Ġcatch":1444,"Ġup":1445,"Sub":1446,"adge":1447,"content":1448,"logger":1449,"gment":1450,"View":1451,"Ġmake":1452,"refix":1453,"ommon":1454,"Ġ_,":1455,"http":1456,"Spec":1457,"Property":1458,"so":1459,"ide":1460,"atab":1461,"12":1462,"====":1463,"Ġmax":1464,"Ro":1465,"Assert":1466,"cache":1467,"Ġstr":1468,"Ġdoes":1469,"Ġother":1470,"foo":1471,"FI":1472,"ia":1473,"ucket":1474,"son":1475,"Ġfield":1476,"Int":1477,"append":1478,"Ġbool":1479,"og":1480,"iven":1481,"ody":1482,"part":1483,"atabase":1484,"ailed":1485,"Host":1486,"Ġcolumn":1487,"AD":1488,"du":1489,"Ġinput":1490,"Ġone":1491,"uxio":1492,"Ġdef":1493,"Ġ5":1494,"pected":1495,"Ġversion":1496,"gle":1497,"__(":1498,"trans":1499,"Start":1500,"teger":1501,"ED":1502,"output":1503,"Dir":1504,"etwork":1505,"version":1506,"vider":1507,"rl":1508,"ces":1509,"lobal":1510,"module":1511,"UN":1512,"chedul":1513,"Ġac":1514,"Exec":1515,"''":1516,"Ġimp":1517,"yle":1518,"As":1519,"Ġerrors":1520,"raw":1521,"Call":1522,"uf":1523,"\"))":1524,"CT":1525,"web":1526,"='":1527,"block":1528,"AB":1529,"throws":1530,"ĠList":1531,"sw":1532,"Ġvar":1533,"items":1534,"Date":1535,"mote":1536,"Ġu":1537,"Text":1538,"ible":1539,"Job":1540,"Ġtask":1541,"arent":1542,"untime":1543,"obj":1544,"Ġus":1545,"plo":1546,"Token":1547,"write":1548,"Ġbut":1549,"Fl":1550,"cted":1551,"org":1552,"ĠObservable":1553,"plit":1554,"Create":1555,"nap":1556,"off":1557,"System":1558,"ative":1559,"{\"":1560,"da":1561,"Ġquery":1562,"Return":1563,"Back":1564,"ends":1565,"ference":1566,"Entry":1567,"Ġvalid":1568,"Types":1569,"Auth":1570,"Handler":1571,"Ġgiven":1572,"Ġmay":1573,"ublis":1574,"sg":1575,"Ġact":1576,"Frame":1577,"Ġunder":1578,"Off":1579,"Ġret":1580,"method":1581,"clude":1582,"tot":1583,"Ġfmt":1584,"af":1585,"`,":1586,"stream":1587,"'),":1588,"Run":1589,"Ġarg":1590,"Ġfirst":1591,"export":1592,"entifier":1593,"down":1594,"uper":1595,"####":1596,"Schema":1597,"TION":1598,"flow":1599,"join":1600,"Ġco":1601,"OException":1602,"Ġinter":1603,"olume":1604,"my":1605,"Method":1606,"label":1607,"loud":1608,"ET":1609,"/*":1610,"Configuration":1611,"assertEquals":1612,"ency":1613,"++":1614,"num":1615,"cheduler":1616,"raph":1617,"ustom":1618,"auth":1619,"ateg":1620,"Hash":1621,"parse":1622,"play":1623,"ped":1624,"Ac":1625,"Device":1626,"scription":1627,"Address":1628,"ates":1629,"Command":1630,"Be":1631,"Session":1632,"MA":1633,"Input":1634,"((":1635,"ĠĠĠĠĠĠ":1636,"Ġmodel":1637,"ĠObject":1638,"dim":1639,"rs":1640,"values":1641,"ĠTest":1642,"Ġmatch":1643,"Item":1644,"Errorf":1645,"fl":1646,"rics":1647,"boolean":1648,"uture":1649,"Ġag":1650,"ince":1651,"Ġread":1652,"Im":1653,"Ġfunc":1654,"Read":1655,"false":1656,"CON":1657,"types":1658,"ning":1659,"source":1660,"TY":1661,"Work":1662,"vis":1663,"az":1664,"idth":1665,"****":1666,"pan":1667,"break":1668,"kwargs":1669,"rim":1670,"DB":1671,"ved":1672,"Must":1673,"ternal":1674,"Pre":1675,"ugin":1676,"ys":1677,"Ġsh":1678,"ĠAr":1679,"DI":1680,"no":1681,"MP":1682,"ature":1683,"next":1684,"Ġmust":1685,"CH":1686,"emplate":1687,"Mode":1688,"gin":1689,"response":1690,"False":1691,"Storage":1692,"message":1693,"Imp":1694,"riter":1695,"Level":1696,"omain":1697,"ĠSet":1698,"shot":1699,"view":1700,"uccess":1701,"ermiss":1702,"session":1703,"Ġback":1704,"ATE":1705,"QL":1706,"params":1707,"Expression":1708,"itial":1709,"annot":1710,"Ġstruct":1711,"aster":1712,"Sh":1713,"bj":1714,"Ġresponse":1715,"Channel":1716,"``":1717,"Ġatt":1718,"izer":1719,"0000":1720,"Ġelement":1721,"RI":1722,"oogle":1723,"Valid":1724,"tected":1725,"Ġpart":1726,"service":1727,"Ġconst":1728,"ingle":1729,"Ġ10":1730,"Ġservice":1731,"bl":1732,"Ġjob":1733,"Ġtra":1734,"istribut":1735,"ts":1736,"doc":1737,"AG":1738,"Hel":1739,"ws":1740,"Ġcache":1741,"ract":1742,"ware":1743,"itch":1744,"entity":1745,"napshot":1746,"Base":1747,"job":1748,"Action":1749,"quence":1750,"rit":1751,"Commit":1752,"Ġitem":1753,"xy":1754,"Ġ($":1755,"ating":1756,"Ġresource":1757,"\".":1758,"Ġappend":1759,"Ġinto":1760,"sha":1761,"Ġspecified":1762,"ments":1763,"AME":1764,"itions":1765,"FA":1766,"Ġlo":1767,"bar":1768,"Component":1769,"At":1770,"target":1771,"debug":1772,"Ġwas":1773,"Ġpl":1774,"utils":1775,"ale":1776,"troll":1777,"tinue":1778,"ĠCon":1779,"AS":1780,"process":1781,"Metadata":1782,"byte":1783,"defined":1784,"<?":1785,"ension":1786,"SER":1787,"Select":1788,"lice":1789,"long":1790,"Inode":1791,"nown":1792,"Ġ+=":1793,"cal":1794,"resent":1795,"ES":1796,"leg":1797,"Ġserver":1798,"Ġexpected":1799,"Scope":1800,"peline":1801,"Ag":1802,"Listener":1803,"Ġreturns":1804,"ids":1805,"do":1806,"sum":1807,"filter":1808,"ĠGet":1809,"Ġgroup":1810,"Ġoutput":1811,"Description":1812,"adgeData":1813,"angu":1814,"ĠData":1815,"tings":1816,"Ġnp":1817,"attern":1818,"Ġz":1819,"ildren":1820,"way":1821,"Partition":1822,"Ġwhere":1823,"11":1824,"Ġneed":1825,"Logger":1826,"MM":1827,"Max":1828,"Ġyou":1829,"itle":1830,"ready":1831,"should":1832,"kip":1833,"Ġcopy":1834,"Ġper":1835,"Trans":1836,"ww":1837,"order":1838,"cre":1839,"protected":1840,"Mem":1841,"Ġtrans":1842,"ants":1843,"etail":1844,"Ġinst":1845,"close":1846,"nal":1847,"ignore":1848,"Ġsize":1849,"LOG":1850,"Timeout":1851,"ous":1852,">>>":1853,"ĠFile":1854,"uple":1855,"tk":1856,"Ġcode":1857,"Ġcontent":1858,"troller":1859,"Ġmessage":1860,"Ġlong":1861,"ization":1862,"\").":1863,"number":1864,"ict":1865,"find":1866,"ics":1867,"rowser":1868,"Ġorder":1869,"token":1870,"Ġemit":1871,"erge":1872,"lease":1873,"Policy":1874,"ted":1875,"status":1876,"req":1877,"raint":1878,"schema":1879,"ures":1880,"}.":1881,"ĠK":1882,"ĠTrue":1883,"stamp":1884,"ting":1885,"aders":1886,"the":1887,"PE":1888,"SON":1889,"Container":1890,"Ġok":1891,"ists":1892,"ĠArray":1893,"ches":1894,"Ġ},":1895,"Ġtarget":1896,"send":1897,"fg":1898,"Ġdb":1899,"Long":1900,"Collection":1901,"ION":1902,"Label":1903,"If":1904,"Empty":1905,"MO":1906,"Co":1907,":\"":1908,"QU":1909,"Args":1910,"Delete":1911,"ecute":1912,"Str":1913,"defer":1914,"Ġcase":1915,"Point":1916,"bs":1917,"image":1918,"ploy":1919,"anguage":1920,"Fatal":1921,"remove":1922,"common":1923,"uto":1924,"NAME":1925,"Meta":1926,"Iter":1927,"osition":1928,"ĠUn":1929,"Act":1930,"Names":1931,"Filter":1932,"Ġnum":1933,"len":1934,"ĠIOException":1935,"oft":1936,"Bytes":1937,"Ġgener":1938,"ls":1939,"ĠException":1940,"ulti":1941,"equals":1942,"Ġeach":1943,"Local":1944,"ph":1945,"API":1946,"={":1947,"printf":1948,"Format":1949,"bool":1950,"uments":1951,"Ġ!==":1952,"Ġbase":1953,"Func":1954,"Tree":1955,"leted":1956,"Url":1957,"gn":1958,"Output":1959,"Ed":1960,"Ġmin":1961,"Write":1962,"ailable":1963,"Port":1964,"000":1965,"Ġhost":1966,"can":1967,"andom":1968,"Ġlast":1969,"Ġprocess":1970,"Ġargs":1971,"'.":1972,"Tx":1973,"delete":1974,"Ġsupport":1975,"URL":1976,"Ġselect":1977,"queue":1978,"Ġextends":1979,"Ġsame":1980,"handle":1981,"ie":1982,"local":1983,"Ġhandle":1984,"TT":1985,"Ġhttp":1986,"ĠReturn":1987,"msg":1988,"env":1989,"plic":1990,"dict":1991,"greg":1992,"atform":1993,"ĠWe":1994,"gra":1995,"<>":1996,"():":1997,"ersist":1998,"`.":1999,"16":2000,"active":2001,"address":2002,"Cluster":2003,"Ġfound":2004,"Header":2005,"sor":2006,"idd":2007,"ABLE":2008,"contains":2009,"ster":2010,"formation":2011,"ending":2012,"ributes":2013,"ines":2014,"\\\"":2015,"Ref":2016,"etch":2017,"Join":2018,"refer":2019,"Tag":2020,"Process":2021,"await":2022,"ding":2023,"ential":2024,"users":2025,"mem":2026,"OT":2027,"Number":2028,"match":2029,"open":2030,"ML":2031,"Ġstore":2032,"20":2033,"Ġthen":2034,"Ġimplement":2035,"Expr":2036,"cs":2037,"Operation":2038,"alled":2039,"ename":2040,"bind":2041,"hash":2042,"Ġsession":2043,"root":2044,"dat":2045,"ptor":2046,"Ġfl":2047,"proto":2048,"Provider":2049,"Buffer":2050,"ries":2051,"Ġnext":2052,"toString":2053,"frame":2054,"post":2055,":`":2056,"ik":2057,"see":2058,"cle":2059,"other":2060,"channel":2061,"vm":2062,"Ġass":2063,"ODO":2064,"ĠĠĠĠĠĠĠĠĠ":2065,"warn":2066,"Case":2067,"ULT":2068,"Ġchannel":2069,"Close":2070,"Ġcount":2071,"ĠFalse":2072,"Ġusing":2073,"continue":2074,"webpack":2075,"html":2076,"totype":2077,"Plan":2078,"viron":2079,"romise":2080,"Ġ@@":2081,"ds":2082,"Ġafter":2083,"@@":2084,"Stats":2085,"Ġbefore":2086,"Ġtypes":2087,"Ġauth":2088,"parent":2089,"ular":2090,"property":2091,"apping":2092,"names":2093,"ton":2094,"ormal":2095,"${":2096,"ility":2097,"go":2098,"HO":2099,"buf":2100,"Helper":2101,"Ġcommit":2102,"ification":2103,"sist":2104,"license":2105,"Ġdocument":2106,"FS":2107,"ump":2108,"Ġad":2109,"hout":2110,"KE":2111,"////":2112,"ĠSer":2113,"ice":2114,"Change":2115,"Ġmy":2116,"ender":2117,"cat":2118,"Ġload":2119,"IL":2120,"Ġfiles":2121,"river":2122,"Sec":2123,"Trace":2124,"command":2125,"ithout":2126,"olve":2127,"cript":2128,"mail":2129,"Load":2130,"ift":2131,"()))":2132,"201":2133,"inary":2134,"Ġexecut":2135,"etime":2136,"Pool":2137,"package":2138,"inis":2139,"Endpoint":2140,"resh":2141,"posit":2142,"Ġisinstance":2143,"mut":2144,"Ġallow":2145,"Entity":2146,"assword":2147,"sert":2148,"Ġ\"\"":2149,"keys":2150,"Ġconfiguration":2151,"Access":2152,"Enabled":2153,"Parse":2154,"Ġ**":2155,"Executor":2156,"any":2157,"inition":2158,"uch":2159,"Properties":2160,"Ġprovi":2161,"Per":2162,"Ġav":2163,"Ġ6":2164,"istributed":2165,"react":2166,"Ġmore":2167,"istry":2168,"ultip":2169,"day":2170,"').":2171,"Ġformat":2172,"dt":2173,"ĠY":2174,"EX":2175,"PO":2176,"split":2177,"\">":2178,"enu":2179,"prototype":2180,"'))":2181,"ĠAn":2182,"lick":2183,"Unit":2184,"Ġentry":2185,"Ġoff":2186,"float":2187,"first":2188,"very":2189,"Http":2190,"Order":2191,"Ġbuild":2192,"Reader":2193,"CK":2194,"top":2195,"https":2196,"Ġthere":2197,"prec":2198,"begin":2199,"]);":2200,"Ġfail":2201,"ities":2202,"anged":2203,"ym":2204,"UP":2205,"Connection":2206,"ique":2207,"spec":2208,"getId":2209,"Location":2210,"Mod":2211,"Ġcontainer":2212,"FAULT":2213,"hl":2214,"Ġinstanceof":2215,"patch":2216,"Segment":2217,"ether":2218,"dag":2219,"idx":2220,"Page":2221,"ns":2222,"Record":2223,"container":2224,"rel":2225,"Ġtoken":2226,"Par":2227,"VER":2228,"project":2229,"hed":2230,"Ġcommand":2231,"rag":2232,"np":2233,"Ġab":2234,"etails":2235,"Transaction":2236,"VE":2237,"25":2238,"Ġlabel":2239,"Ġstatus":2240,"IP":2241,"Ġbeen":2242,"hel":2243,"ration":2244,"cast":2245,"99":2246,"lib":2247,"uid":2248,"Ġconnection":2249,"Ġdirectory":2250,"exp":2251,"onth":2252,"Network":2253,"Handle":2254,"Ġempty":2255,"ĠTODO":2256,"Ġfind":2257,"VAL":2258,"vok":2259,"Ġproperty":2260,"Interface":2261,"Ġalready":2262,"switch":2263,"copy":2264,"ient":2265,"commit":2266,"Ġstream":2267,"anges":2268,"Ġlocal":2269,"Values":2270,"trol":2271,"cer":2272,"less":2273,"HE":2274,"Ad":2275,"Ġitems":2276,"Ġlimit":2277,"rict":2278,"ĠCol":2279,"roid":2280,"round":2281,"props":2282,"google":2283,"pository":2284,"ymb":2285,"ĠID":2286,"ssages":2287,"Ġline":2288,"columns":2289,"rimary":2290,"Gener":2291,"Ret":2292,"We":2293,"cmd":2294,"network":2295,"conf":2296,"cloud":2297,"Parameters":2298,"cent":2299,"roll":2300,"rigger":2301,"ipeline":2302,"pu":2303,"ancel":2304,"Que":2305,"shape":2306,"ias":2307,"chedule":2308,"replace":2309,"TER":2310,"ĠComp":2311,"Invalid":2312,"Keys":2313,"tual":2314,"Range":2315,"Char":2316,"Next":2317,"Ġpage":2318,"Params":2319,"olt":2320,"Rule":2321,"Ġparent":2322,"Ġtext":2323,"Ġos":2324,"air":2325,"master":2326,"(*":2327,"URI":2328,"mark":2329,"Ġchar":2330,"gener":2331,"ertific":2332,"getName":2333,"unter":2334,"Min":2335,"ĠSee":2336,"Ġ\"\",":2337,"Rout":2338,"iables":2339,"register":2340,"Ġrep":2341,"ging":2342,"Ġio":2343,"Attribute":2344,".__":2345,"Parameter":2346,"ocket":2347,"Files":2348,"Ġdim":2349,"Ġ``":2350,"ater":2351,"lied":2352,"fil":2353,"Ġnon":2354,"Sprintf":2355,"Ġpartition":2356,"src":2357,"gress":2358,"uble":2359,"Offset":2360,"Post":2361,"Future":2362,"Length":2363,"alt":2364,"Thread":2365,"Ġrow":2366,"Ġinitial":2367,"ĠĠĠĠĠĠĠĠĠĠĠĠĠĠĠ":2368,"ward":2369,"\"`":2370,"valu":2371,"Ġits":2372,"ĠReturns":2373,"Role":2374,"Ġthan":2375,"oop":2376,"UM":2377,"Link":2378,"idden":2379,"TO":2380,".\")":2381,"second":2382,"internal":2383,"ĠEx":2384,"ĠMap":2385,"over":2386,"ĠCreate":2387,"Integer":2388,"fe":2389,"wo":2390,"ither":2391,"mode":2392,"Eng":2393,"_,":2394,"Browser":2395,"Non":2396,"async":2397,"page":2398,"level":2399,"location":2400,"tag":2401,"Wrap":2402,"ear":2403,"([]":2404,"scribe":2405,"Ġctx":2406,"ocker":2407,"Match":2408,"undle":2409,"Target":2410,"Ġfailed":2411,"perators":2412,"Ġright":2413,"Failed":2414,"Ġover":2415,"Ġsrc":2416,"files":2417,"ATION":2418,"Ġcallback":2419,"limit":2420,"imple":2421,"medi":2422,"Ġcor":2423,"Queue":2424,"Document":2425,"Rows":2426,"Template":2427,"push":2428,"cy":2429,"Ġsecond":2430,"Fatalf":2431,"ination":2432,"========":2433,"Ġschema":2434,"Ġdistributed":2435,"redential":2436,"sort":2437,"TR":2438,"cor":2439,"entry":2440,"Ġold":2441,"PI":2442,"eep":2443,"Ġwrite":2444,"Java":2445,"18":2446,"ĠIN":2447,"Ġpar":2448,"Ġfilter":2449,"Ġinfo":2450,"Ġrequired":2451,"connect":2452,"Found":2453,"ixed":2454,"Ġ>=":2455,"Ġoperation":2456,"Ġclose":2457,"sing":2458,"sign":2459,"Ġlock":2460,"sistency":2461,"Ġmode":2462,"mod":2463,"Ġroot":2464,"box":2465,"meta":2466,"description":2467,"rid":2468,"iod":2469,"Ġparse":2470,"execut":2471,"KEY":2472,"full":2473,"Engine":2474,"utton":2475,"achine":2476,"Ġcur":2477,"Image":2478,"../":2479,"ĠCheck":2480,"MustExec":2481,"Duration":2482,"main":2483,"Ġrel":2484,"div":2485,"MS":2486,"ced":2487,"ordin":2488,"Rel":2489,"Ġmod":2490,"stract":2491,"itional":2492,"eek":2493,"ultiple":2494,"upp":2495,"Statement":2496,"andas":2497,"mount":2498,"Root":2499,"ermission":2500,"ORK":2501,"search":2502,"park":2503,"iginal":2504,"ĠAN":2505,"issing":2506,"[:":2507,"opts":2508,"Ġ8":2509,"Ġexists":2510,"Line":2511,"ĠFor":2512,"Ġtx":2513,"attr":2514,"Warn":2515,"Ġax":2516,"ĠPro":2517,"Ġobj":2518,"34":2519,"left":2520,"Ġdelete":2521,"Ġcontain":2522,"timeout":2523,"Conf":2524,"(`":2525,"--------------------------------":2526,"Ġtransaction":2527,"Part":2528,"imum":2529,"vironment":2530,"Do":2531,"insert":2532,"sp":2533,"ployment":2534,"reference":2535,"PC":2536,"ugh":2537,"Ġlength":2538,"ta":2539,"NoError":2540,"ymbol":2541,"Resol":2542,"Ġpublic":2543,"document":2544,"oftware":2545,"mock":2546,"Ġremove":2547,"oci":2548,"Ġreturned":2549,"30":2550,"ĠOR":2551,"aly":2552,"vious":2553,"Module":2554,"static":2555,"ayload":2556,"cause":2557,"rie":2558,"wn":2559,"\"},":2560,"asses":2561,"'''":2562,"rint":2563,"Argument":2564,"assertTrue":2565,"TYPE":2566,"Child":2567,"storage":2568,"device":2569,"Prefix":2570,"SQL":2571,"interface":2572,"element":2573,"(_":2574,"nd":2575,"then":2576,"Ġtimeout":2577,"()).":2578,"[$":2579,"Internal":2580,"PRE":2581,"LECT":2582,"24":2583,"TTP":2584,"ell":2585,"mutable":2586,"exports":2587,"ĠAll":2588,"ont":2589,"actor":2590,"Parent":2591,"Ver":2592,"Ctx":2593,"empty":2594,"Ġcluster":2595,"badgeData":2596,"struct":2597,"style":2598,"rypt":2599,"icate":2600,"ensions":2601,"ĠAdd":2602,"ensor":2603,"now":2604,"cret":2605,"Ġreq":2606,"layer":2607,"fail":2608,"Proto":2609,"wise":2610,"Ġopen":2611,"ertificate":2612,"NO":2613,"callback":2614,"Returns":2615,"Repo":2616,"batch":2617,"PRO":2618,"atalog":2619,"Ġwait":2620,"ranch":2621,"########":2622,"Reference":2623,"ollow":2624,"Ġjson":2625,"Writer":2626,"Option":2627,"support":2628,"Ġaction":2629,"elif":2630,"Ġdif":2631,"Constraint":2632,"Num":2633,"Nil":2634,"otal":2635,"super":2636,"ynch":2637,"Ġmsg":2638,"ived":2639,"Form":2640,"STER":2641,"unit":2642,"irtual":2643,"except":2644,"metadata":2645,"legal":2646,"TH":2647,"Wh":2648,"Ġinformation":2649,"body":2650,"ĠSe":2651,"Ġdf":2652,"Ġval":2653,"aws":2654,"Ġstrings":2655,"Ġhtt":2656,"Support":2657,"Ġhere":2658,"Ġoper":2659,"Master":2660,"ynchron":2661,"Ġmem":2662,"ivity":2663,"Ġdest":2664,"Ġmodule":2665,"cluster":2666,"This":2667,"qui":2668,"adoop":2669,"connection":2670,"rule":2671,"Ġview":2672,"Ġwithout":2673,"Ġuint":2674,"Open":2675,"Ġprop":2676,"assed":2677,"Stack":2678,"15":2679,"Ġiter":2680,"kg":2681,"template":2682,"ng":2683,"coder":2684,"sets":2685,"Ġkeys":2686,"ĠValue":2687,"ead":2688,"PER":2689,"coding":2690,"ause":2691,"ĠOptional":2692,"Lim":2693,"Ġ'/":2694,"oment":2695,"TIME":2696,"Ġeither":2697,"uite":2698,"prop":2699,"Ġsign":2700,"render":2701,"results":2702,"ourn":2703,"FILE":2704,"tr":2705,"(&":2706,"Ġbuffer":2707,"Ġmysql":2708,"ublish":2709,"Debug":2710,"Ġinterface":2711,"Com":2712,"ero":2713,"amb":2714,"ĠCh":2715,"global":2716,"Ġrece":2717,"testing":2718,"Val":2719,"cheme":2720,"Ġref":2721,"fields":2722,"Ġawait":2723,"change":2724,"Ġnames":2725,"dest":2726,"aded":2727,"cap":2728,"Current":2729,"axis":2730,"engine":2731,"Execution":2732,"Ġ\"/":2733,"ROM":2734,"afe":2735,"/***/":2736,"okup":2737,"pri":2738,"inst":2739,"YY":2740,"Ġmetadata":2741,"Ġvm":2742,"char":2743,"Lay":2744,"Ġsha":2745,".\",":2746,"book":2747,"iki":2748,"Del":2749,"ports":2750,"ĠType":2751,"Search":2752,"precated":2753,"Identifier":2754,"Ra":2755,"Ids":2756,"Ġprovided":2757,"Volume":2758,"Ġstorage":2759,"Last":2760,"Ġbecause":2761,"Fields":2762,"Impl":2763,"fmt":2764,"Ġinode":2765,"Ġcreated":2766,"Stop":2767,"Ġurl":2768,"atches":2769,"ournal":2770,"Platform":2771,"Iterator":2772,"ackage":2773,"ven":2774,"Ġbo":2775,"Ġed":2776,"Ġdevice":2777,"ping":2778,"Ġparams":2779,"Ġresults":2780,"Ph":2781,"Consistency":2782,"tree":2783,"DS":2784,"Ġwrit":2785,"********":2786,"JSON":2787,"Ġparameter":2788,"kens":2789,"show":2790,"execute":2791,"Account":2792,"14":2793,"Ġhttps":2794,"Da":2795,"'])":2796,"ling":2797,"Ġignore":2798,"Ġq":2799,"ublisher":2800,"className":2801,")))":2802,"uiltin":2803,"Ġchange":2804,"eta":2805,"Ġexception":2806,"Directory":2807,"ructor":2808,"anner":2809,"Ġsuper":2810,"drop":2811,"Ġfloat":2812,"SH":2813,"Doc":2814,"Ġaddress":2815,"Prop":2816,"Ġcalled":2817,"sole":2818,"errors":2819,"}}":2820,"tom":2821,"ĠDefault":2822,"Ġnet":2823,"ĠX":2824,"Ġnetwork":2825,"50":2826,"Uri":2827,"Ġ'%":2828,"Ġjoin":2829,"Definition":2830,"Props":2831,"Ġchild":2832,"Descriptor":2833,"Callback":2834,"opt":2835,"ju":2836,"hljs":2837,"wner":2838,"exception":2839,"NE":2840,"Ġsingle":2841,"inally":2842,"Ġdown":2843,"Ġcomponent":2844,"Msg":2845,"rect":2846,"sl":2847,"kit":2848,"tmp":2849,"alle":2850,"Ġaccess":2851,"Mo":2852,"ground":2853,"Ġho":2854,"Ġarguments":2855,"moved":2856,"Scheduler":2857,"Ġbytes":2858,"ĠArrayList":2859,"mask":2860,"imal":2861,"Ġsend":2862,"alluxio":2863,"Ġdatabase":2864,"bytes":2865,"ful":2866,"Boolean":2867,"Render":2868,")),":2869,"arsh":2870,"curity":2871,"validate":2872,"ĠProperty":2873,"Ġpassed":2874,"Ġqu":2875,"Ġexp":2876,"Require":2877,"initial":2878,"since":2879,"Exists":2880,"Ġspecific":2881,"ambda":2882,"Down":2883,"LL":2884,"collect":2885,"SELECT":2886,"tract":2887,"img":2888,"offset":2889,"Ġnow":2890,"ween":2891,"while":2892,"ans":2893,"ged":2894,"hadoop":2895,"wrap":2896,"ermissions":2897,"Ġpoint":2898,"Second":2899,"vc":2900,"UE":2901,"access":2902,"ason":2903,"HT":2904,"example":2905,"worker":2906,"Ġdon":2907,"Ġoffset":2908,"Vis":2909,"ConsistencyCheck":2910,"Only":2911,"serial":2912,"title":2913,"CI":2914,"getS":2915,"Ġwant":2916,"Ġsort":2917,"ority":2918,"Ġwindow":2919,")}":2920,"?:":2921,"etween":2922,"Mock":2923,"Flag":2924,"READ":2925,"stop":2926,"ose":2927,"Body":2928,"13":2929,"><":2930,"Ġport":2931,"pressure":2932,"Vars":2933,"ĠBuilder":2934,"Ġbyte":2935,"builder":2936,"Ġsc":2937,"ze":2938,"Limit":2939,"role":2940,"allow":2941,"utdown":2942,"bee":2943,"Ġproto":2944,"dl":2945,"rpc":2946,"Ġundefined":2947,"Ġconf":2948,"FF":2949,"Ġpy":2950,"getValue":2951,"OP":2952,"Ali":2953,"Region":2954,"buffer":2955,"child":2956,"Database":2957,"Ġtag":2958,"pare":2959,"conn":2960,"thon":2961,"ld":2962,"Window":2963,"account":2964,"uri":2965,"dtype":2966,"][":2967,"ragment":2968,"ek":2969,"Dat":2970,"Each":2971,"trace":2972,"ication":2973,"application":2974,"ConsistencyCheckLevel":2975,"urity":2976,"ĠIt":2977,"Cond":2978,"Bo":2979,"www":2980,"Async":2981,"Fail":2982,"iteral":2983,"Editor":2984,"DER":2985,"Columns":2986,"Fe":2987,"peer":2988,"Ġ((":2989,"returns":2990,"Ġhash":2991,"<>();":2992,"Runtime":2993,"Op":2994,"()));":2995,"cla":2996,"Ġ7":2997,"Ġtry":2998,"ACK":2999,"Ġfull":3000,"Bucket":3001,"Height":3002,"ĠCopy":3003,"head":3004,"Ġ{'":3005,"LIC":3006,"Ġproject":3007,"'d":3008,"done":3009,"Ġactual":3010,"ired":3011,"Obj":3012,"Script":3013,"stack":3014,"Ġconvert":3015,"OL":3016,"Ġheight":3017,"bucket":3018,"void":3019,"ĠHash":3020,"cfg":3021,"Ġrecord":3022,"Settings":3023,"ĠEn":3024,"Ġsome":3025,"ier":3026,"Byte":3027,"ategy":3028,"ugins":3029,"used":3030,"Loader":3031,"Interval":3032,"ĠInvalid":3033,"Ġaxis":3034,"ĠAPI":3035,"java":3036,"edia":3037,"Pos":3038,"\"));":3039,",\"":3040,"only":3041,"ĠĠĠĠĠĠĠĠĠĠ":3042,"Ġexisting":3043,"remote":3044,"endpoint":3045,"Ġinstead":3046,"ulate":3047,"vers":3048,"oss":3049,"component":3050,"Ġoption":3051,"sync":3052,"RL":3053,"WORK":3054,"ker":3055,"MODE":3056,"prefix":3057,"make":3058,"Controller":3059,"Equals":3060,"\\/":3061,"Ġcolumns":3062,"Ġasync":3063,"pter":3064,"Desc":3065,"Plugin":3066,"Ġind":3067,"ĠWh":3068,"DEFAULT":3069,"istory":3070,"Ġalso":3071,"Ġwhether":3072,"AM":3073,"option":3074,"isEmpty":3075,"]:":3076,"Style":3077,"Sign":3078,"Ġcollection":3079,"partition":3080,"ators":3081,"Ass":3082,"side":3083,"CL":3084,"curs":3085,"STR":3086,"ifact":3087,"Snapshot":3088,"Ġ201":3089,"Ġform":3090,"{},":3091,"Active":3092,"Cur":3093,"board":3094,"Ġrule":3095,"igbee":3096,"='=>'":3097,"ateway":3098,"19":3099,"ategory":3100,"./":3101,"Sig":3102,"mm":3103,"Build":3104,"Ġemitted":3105,"Addr":3106,"color":3107,"inc":3108,"ection":3109,"_(":3110,"Ġassert":3111,"ĠCON":3112,"Ġthem":3113,"Ġ...":3114,"Sync":3115,"metrics":3116,"llegal":3117,"Graph":3118,"Ġendpoint":3119,"></":3120,"Ġ<-":3121,"Serial":3122,"Ġfollow":3123,"Ġop":3124,"++)":3125,"Ġremote":3126,"Ġproperties":3127,"22":3128,"cker":3129,"ector":3130,"ability":3131,"Ġdat":3132,"Ġlevel":3133,"Ġdate":3134,"Unlock":3135,"Ġrepresent":3136,"Ġdict":3137,"Ġunit":3138,"Variable":3139,"ĠDe":3140,"RAN":3141,"nil":3142,"Machine":3143,"ĠDE":3144,"Ġthread":3145,"Constants":3146,"enter":3147,"transform":3148,"Ġavailable":3149,"Ġjust":3150,"properties":3151,"Ġla":3152,"Ġver":3153,"tags":3154,"Ġsince":3155,"Web":3156,"crement":3157,"Dao":3158,"URE":3159,"tl":3160,"Pipeline":3161,"Ġcontains":3162,"Ġar":3163,"pool":3164,"Ġren":3165,"lot":3166,"Domain":3167,"umpy":3168,"atures":3169,"ĠTime":3170,"Wait":3171,"Ġ<=":3172,"cimal":3173,"ness":3174,"Pattern":3175,"Ġoptional":3176,"Ġob":3177,"Ġbucket":3178,"Ġparameters":3179,"Ġ</":3180,"runtime":3181,"Db":3182,"ensure":3183,"std":3184,"Selector":3185,"NotFound":3186,"Project":3187,"mary":3188,"Folder":3189,"Ġthrow":3190,"Metrics":3191,"Ġleft":3192,"Ġsuccess":3193,"Results":3194,"Ġ[]*":3195,"Ġstop":3196,"Ġ[];":3197,"Ġlike":3198,"ĠHttp":3199,"clar":3200,"thing":3201,"TL":3202,"verify":3203,"TS":3204,"Ġcannot":3205,"]]":3206,"Ġnodes":3207,"width":3208,"bin":3209,"ily":3210,"Ġ--":3211,"Ġwhile":3212,"ĠError":3213,"rough":3214,"del":3215,"fn":3216,"man":3217,"Exist":3218,"ĠYou":3219,"ters":3220,"labels":3221,"lint":3222,"Ġconnect":3223,"iff":3224,"Ġ12":3225,"nel":3226,"duct":3227,"rip":3228,"Ġtop":3229,"Ġsequence":3230,"Has":3231,"istics":3232,"known":3233,"unknown":3234,"TED":3235,"ĠInc":3236,"US":3237,"resolve":3238,"ZE":3239,"Ġworker":3240,"aker":3241,"Ġ(*":3242,"80":3243,"Namespace":3244,"andard":3245,"cp":3246,"chunk":3247,"Ext":3248,"stats":3249,"chain":3250,"scope":3251,"verse":3252,"save":3253,"amples":3254,"ution":3255,"imer":3256,"Ġexpression":3257,"'re":3258,"Connect":3259,"cls":3260,"Memory":3261,"AGE":3262,"redicate":3263,"iler":3264,"()),":3265,"position":3266,"ves":3267,"ln":3268,"Position":3269,"policy":3270,"56":3271,"Exp":3272,"Ġaccount":3273,"grad":3274,"apply":3275,"Ġlicense":3276,"Ġthey":3277,"dataset":3278,"encies":3279,"Batch":3280,"Ġcmd":3281,"ords":3282,"repo":3283,"UID":3284,"configuration":3285,"VI":3286,"Registry":3287,"Ġtemp":3288,"xml":3289,"Ġrender":3290,"Children":3291,"vance":3292,"Ġfields":3293,"window":3294,"Ġpost":3295,"rix":3296,"Ġtree":3297,"ĠĠĠĠĠĠĠĠĠĠĠĠ":3298,"ways":3299,"PAR":3300,"mysql":3301,"Ġreference":3302,"Ġdoesn":3303,"ULL":3304,"include":3305,"ĠNot":3306,"Ġposition":3307,"17":3308,"Mount":3309,"_.":3310,"redentials":3311,"Application":3312,"Ġtemplate":3313,"Ign":3314,"eric":3315,"ĠReact":3316,"04":3317,"Ġ100":3318,"idget":3319,".,":3320,"Ġobjects":3321,"DefaultValue":3322,"br":3323,"pers":3324,"ialog":3325,"Ġ\",":3326,"lem":3327,"Ġexecute":3328,"alc":3329,"models":3330,"Ġdepend":3331,"MAX":3332,"ERR":3333,"namespace":3334,"voke":3335,"member":3336,"custom":3337,"fill":3338,"record":3339,"admin":3340,"IC":3341,"Ġcl":3342,"ship":3343,"33":3344,"total":3345,"bound":3346,"ĠFROM":3347,"mu":3348,"Ġ});":3349,"ĠPropertyKey":3350,"Ġlocation":3351,"clear":3352,"Ġsee":3353,"Acc":3354,"(()":3355,"ĠIS":3356,"Ġinclude":3357,"route":3358,"Ġdet":3359,"Ġsystem":3360,"expression":3361,"invalid":3362,"Ġbetween":3363,"resp":3364,"Global":3365,"Us":3366,"Ġopts":3367,"author":3368,"metric":3369,"Ġsure":3370,"ĠNew":3371,"Media":3372,"identifier":3373,"After":3374,"Nodes":3375,"random":3376,"hive":3377,"ges":3378,"Annot":3379,"dims":3380,"ferent":3381,"\"],":3382,"\",\"":3383,"gen":3384,"Ġimplements":3385,"ĠURL":3386,"exists":3387,"Repository":3388,"Ġlanguage":3389,"Ġfe":3390,"bindings":3391,"DD":3392,"setDescription":3393,"Ġsearch":3394,"Ġtwo":3395,"Route":3396,"Disk":3397,"ENSE":3398,"pb":3399,"uring":3400,"Ġoriginal":3401,")).":3402,"ĠLong":3403,"med":3404,"/,":3405,"Flow":3406,"AY":3407,"200":3408,"Ġmo":3409,"azure":3410,"EST":3411,"arshal":3412,"bstract":3413,"bers":3414,"Ġcons":3415,"ĠOF":3416,"Ġ('":3417,"ALL":3418,"Vm":3419,"Security":3420,"alias":3421,"ĠAl":3422,"skip":3423,".(":3424,"series":3425,"pop":3426,"FileSystem":3427,"NotNull":3428,"expr":3429,"Stmt":3430,"ĠIs":3431,"Ġcustom":3432,"{})":3433,"BU":3434,"cover":3435,"Ġevents":3436,"Aggreg":3437,"tact":3438,"roy":3439,"Ġ[\"":3440,"where":3441,"IND":3442,"Proxy":3443,"header":3444,"Ġimage":3445,"Ġinvalid":3446,"Events":3447,"Ġdoc":3448,"domain":3449,"Len":3450,"uc":3451,"Cmd":3452,"Ġoperator":3453,"ationship":3454,"lan":3455,"Maker":3456,"First":3457,"lause":3458,"(\"/":3459,"Put":3460,"ixt":3461,"Color":3462,"typeof":3463,"Ġidx":3464,"Persist":3465,"Ġalluxio":3466,"Ġcond":3467,"Ġbeing":3468,"ĠPublisher":3469,"sure":3470,"Suite":3471,"email":3472,"Txn":3473,"ĠUp":3474,"ITY":3475,"alth":3476,"Timestamp":3477,"Top":3478,"Metric":3479,"ĠCopyright":3480,"Ġhel":3481,"Ġapi":3482,"bed":3483,"ĠVersion":3484,"ured":3485,"OUT":3486,"events":3487,"omet":3488,"nodes":3489,"orch":3490,"slice":3491,"Worker":3492,"Ġhref":3493,"icon":3494,"Ġinit":3495,"ices":3496,"Ġinsert":3497,"////////":3498,"tegr":3499,"wiki":3500,"udit":3501,"Bind":3502,"Runner":3503,"Ġdirect":3504,"Agent":3505,"ites":3506,"Ġbatch":3507,"leanup":3508,".\");":3509,"transaction":3510,"Ġsync":3511,"month":3512,"VO":3513,"lear":3514,"SP":3515,"pass":3516,"Remove":3517,"rv":3518,"Ġpass":3519,"Cap":3520,"height":3521,"Ġmaster":3522,"Ġentity":3523,"zone":3524,"Sequence":3525,"Ġelements":3526,"ĠANY":3527,"Ġapply":3528,"INT":3529,"ĠIllegal":3530,"inish":3531,"Ġmultiple":3532,"week":3533,"lex":3534,"logy":3535,"Ġwidth":3536,"ĠSt":3537,"ffect":3538,"Ġregister":3539,"INE":3540,"crypt":3541,"miss":3542,"Operator":3543,"alance":3544,"Ġrunning":3545,"Badge":3546,"ĠGener":3547,"pg":3548,"Ġprefix":3549,"Ġresol":3550,"operators":3551,"02":3552,"TIONS":3553,"docker":3554,"cale":3555,"Ġheader":3556,"herit":3557,"agent":3558,"Ġskip":3559,"Net":3560,"Ġmark":3561,"Ġargument":3562,"Width":3563,"Ġqueue":3564,"jection":3565,"yper":3566,"Ġ]":3567,"lace":3568,"HTTP":3569,"Ġpermissions":3570,"Resolver":3571,"Chunk":3572,"ĠJSON":3573,"Red":3574,"ely":3575,"pol":3576,"Immutable":3577,"failed":3578,"Pe":3579,"SC":3580,"ĠCollection":3581,"ĠbadgeData":3582,"dk":3583,"Ġglobal":3584,"Ġrole":3585,"uplic":3586,"upt":3587,"Ġsupported":3588,"png":3589,"txn":3590,"security":3591,"Report":3592,"manager":3593,"---":3594,"wer":3595,"resses":3596,"Ġprevious":3597,"'m":3598,"Chain":3599,"Ġchunk":3600,"Short":3601,"ĠInteger":3602,"lower":3603,"Items":3604,"ĠValueError":3605,"voc":3606,"ĠApp":3607,"(\"%":3608,"Ġvis":3609,"Depend":3610,"Parser":3611,"Ġassoci":3612,"Site":3613,"Ġemits":3614,"Ġour":3615,"ium":3616,"100":3617,"acity":3618,"iction":3619,"Admin":3620,"Ġlink":3621,"AST":3622,"ynam":3623,"Core":3624,"Ġgot":3625,"merge":3626,"Ġmeta":3627,"onitor":3628,"rowable":3629,"exist":3630,"children":3631,"FOR":3632,"Ġreport":3633,"chan":3634,"IO":3635,"Ġdtype":3636,"ually":3637,"mer":3638,"Sc":3639,"Ġexcept":3640,"Ġsegment":3641,"LOCK":3642,"parser":3643,"vari":3644,"ONE":3645,"pose":3646,"filename":3647,"pkg":3648,"headers":3649,"dist":3650,"omic":3651,"ops":3652,"report":3653,"force":3654,"Custom":3655,"Ġvariable":3656,"That":3657,"GER":3658,"cc":3659,"quires":3660,"Series":3661,"xJava":3662,"coded":3663,"Chan":3664,"uffix":3665,"ĠWAR":3666,"asic":3667,"Copy":3668,"Ġfil":3669,"Ġfinally":3670,"Ġshow":3671,"lang":3672,"non":3673,"hidden":3674,"dev":3675,"cli":3676,"Control":3677,"collection":3678,"success":3679,"undefined":3680,"(['":3681,"Ġ(\"":3682,"`)":3683,"SIZE":3684,"plugin":3685,"acter":3686,"Ġ),":3687,"Ġreplace":3688,"]*":3689,"ested":3690,"PAT":3691,"letion":3692,"CRE":3693,"Ġwrap":3694,"Ġactive":3695,"Ġmethods":3696,"until":3697,"Ġ${":3698,"Ġattribute":3699,"ORT":3700,"hs":3701,"OUR":3702,"ArgumentException":3703,"Api":3704,"Optional":3705,"ering":3706,"pha":3707,"Ġscope":3708,"Headers":3709,"ARE":3710,"images":3711,"UB":3712,"ony":3713,"desc":3714,"Ġmock":3715,"Mark":3716,"graph":3717,"DataFrame":3718,"Ġenv":3719,"Ġdifferent":3720,"Ġsoftware":3721,"ĠAp":3722,"Ġadded":3723,"supported":3724,"One":3725,"Ġpool":3726,"Ġsw":3727,"Virtual":3728,"atcher":3729,"eners":3730,"Ġvolume":3731,"issue":3732,"']);":3733,"states":3734,"Ġpos":3735,")]":3736,"ibility":3737,"icker":3738,"Space":3739,"Ġ\".":3740,"Cl":3741,"Ġcore":3742,"concurrent":3743,"53":3744,"Retry":3745,"Button":3746,"ĠSQL":3747,"ĠDo":3748,"handler":3749,"rand":3750,"interval":3751,"igh":3752,"ĠĠĠĠĠĠĠĠĠĠĠĠĠ":3753,"Ġexports":3754,"days":3755,"bit":3756,"vision":3757,"Ġ9":3758,"Json":3759,"aving":3760,"Full":3761,"ĠNO":3762,"Ġobtain":3763,"MI":3764,"anaged":3765,"anel":3766,"WS":3767,"Ġrepo":3768,"DAT":3769,"sumer":3770,"]+":3771,"Ġvalidate":3772,"Author":3773,"Ġremoved":3774,"covery":3775,"pipeline":3776,"Ġtuple":3777,"Comment":3778,"catch":3779,"ossible":3780,"Mut":3781,"plica":3782,"entication":3783,"before":3784,"otst":3785,"Menu":3786,"VALUE":3787,"HER":3788,"Ġpolicy":3789,"Kind":3790,"Rep":3791,"OF":3792,"ĠNode":3793,"ĠApache":3794,"Strategy":3795,"Ġtbl":3796,"Rece":3797,"Ġtrace":3798,"ĠĠĠĠĠĠĠĠĠĠĠĠĠĠĠĠĠĠĠ":3799,"letable":3800,"getMessage":3801,"Dest":3802,"ysical":3803,"Bundle":3804,")\",":3805,"getP":3806,"Multi":3807,"Ġcre":3808,"unch":3809,"irc":3810,"Auto":3811,"Ġast":3812,"ayment":3813,"Initial":3814,"MustQuery":3815,"ĠBy":3816,"CTION":3817,"Dim":3818,"convert":3819,"Alias":3820,"points":3821,"Req":3822,"ten":3823,"abs":3824,"ĠWARRAN":3825,"Sort":3826,"ERROR":3827,"dapter":3828,"ĠOn":3829,"database":3830,"Success":3831,"Step":3832,"RPC":3833,"sto":3834,"MASTER":3835,"Day":3836,"leep":3837,"Binary":3838,"Ġdir":3839,"Ġsql":3840,"Remote":3841,"istration":3842,"REQU":3843,"CLI":3844,"ĠNo":3845,"Ġbind":3846,"ically":3847,"system":3848,"ĠWIT":3849,"ĠDataFrame":3850,"Ġexpress":3851,"Ġotherwise":3852,"road":3853,"errupt":3854,"Ġcoordin":3855,"Ġframe":3856,"otstrap":3857,"Ġdefined":3858,")));":3859,"ĠScheduler":3860,"Ġkwargs":3861,"'));":3862,"Click":3863,"asure":3864,"ĠKey":3865,"Ġdone":3866,"click":3867,"irection":3868,"span":3869,"MENT":3870,"attrs":3871,"=[":3872,"Ġ[],":3873,"lier":3874,"END":3875,"ynchronized":3876,"Ġprivate":3877,"Ġtests":3878,"Ġbody":3879,"Ġsite":3880,"ipp":3881,"extend":3882,"keyword":3883,"DATE":3884,"amily":3885,"iterator":3886,"ied":3887,"Ġupdated":3888,"Ġ'',":3889,"depend":3890,"ci":3891,"assign":3892,".$":3893,"like":3894,"console":3895,"COMM":3896,"ARN":3897,"Ġexpect":3898,"actual":3899,"NonNull":3900,"docs":3901,"Ġboth":3902,"Ġtr":3903,"IG":3904,"normal":3905,"sv":3906,"gram":3907,"exec":3908,"Permission":3909,"Ġrequests":3910,"Errors":3911,"ories":3912,"Ġ{},":3913,"NS":3914,"Rendering":3915,"ĠMe":3916,"Float":3917,"{{":3918,"addr":3919,"forEach":3920,"Ġopt":3921,"Ġgo":3922,"SION":3923,"train":3924,"PL":3925,"Cursor":3926,"Ġ',":3927,"Ġadditional":3928,"Transform":3929,"Ġretry":3930,"GET":3931,"OM":3932,"ĠIm":3933,"Ġes":3934,"cho":3935,"Now":3936,"havi":3937,"Ġresp":3938,"ĠTo":3939,"IOException":3940,"Ġnormal":3941,"Ġnamespace":3942,"ĠMet":3943,"Ġhandler":3944,"STRING":3945,"spark":3946,"Mapping":3947,"Ġmerge":3948,"Tags":3949,"Details":3950,"variable":3951,"Ġdrop":3952,"Promise":3953,"region":3954,"ols":3955,"uter":3956,"cols":3957,"Profile":3958,"erson":3959,"rency":3960,"Ġ'[":3961,"card":3962,"Cols":3963,"Ġtotal":3964,"Attributes":3965,"Ġwriting":3966,"pending":3967,"Ġ{};":3968,"RES":3969,"reset":3970,"setDefaultValue":3971,"Ġserial":3972,"TIES":3973,"rivile":3974,"Ġyour":3975,"Ġregion":3976,"ĠBlock":3977,"auto":3978,"ĠErr":3979,"idb":3980,"Background":3981,"Processor":3982,"atrix":3983,"iden":3984,"when":3985,"eps":3986,"achy":3987,"Assign":3988,"ermin":3989,"MB":3990,"Fragment":3991,"Activity":3992,"Ġequal":3993,"Ġfollowing":3994,"rep":3995,"Ġman":3996,"Ġbased":3997,"eeded":3998,"provider":3999,"igest":4000,"moment":4001,"DOM":4002,"Ġ\\\"":4003,"Env":4004,"ĠClass":4005,"Required":4006,"hook":4007,"ĠUpdate":4008,"Ġstrict":4009,":</":4010,"Language":4011,"ĠMA":4012,"Ġagain":4013,"<>(":4014,"reen":4015,"claration":4016,"Dataset":4017,"proxy":4018,"Ġthese":4019,"ving":4020,"ById":4021,"datetime":4022,"Use":4023,"Drop":4024,"respon":4025,"RxJava":4026,"Flags":4027,"illis":4028,"USER":4029,"36":4030,"ruid":4031,"rieve":4032,"controller":4033,"ĠUse":4034,"ĠTable":4035,"Raw":4036,"utes":4037,"swer":4038,"testkit":4039,"ider":4040,"password":4041,"Ġstyle":4042,"ASS":4043,"Ġwithin":4044,"tempt":4045,"reshold":4046,"raft":4047,"Generator":4048,"Alloc":4049,"Ġplugin":4050,"Ġsnapshot":4051,"Groups":4052,"ould":4053,"Tables":4054,"ĠDate":4055,"Allow":4056,"Ġdataset":4057,"Ignore":4058,"Sum":4059,"Ġwarn":4060,"ower":4061,"Pair":4062,"Ġapplic":4063,"enable":4064,"licenses":4065,"ended":4066,"Secret":4067,"FO":4068,"Ġcorrect":4069,"display":4070,"Ġpandas":4071,"lambda":4072,"aa":4073,"License":4074,"rt":4075,"HOUT":4076,"asource":4077,"inode":4078,"secret":4079,"Labels":4080,"sig":4081,"etermin":4082,"volume":4083,"Ġchanges":4084,"available":4085,"Ġprops":4086,"Ġmemory":4087,">(":4088,"itive":4089,"ĠNote":4090,"ĠAlluxio":4091,"after":4092,"----------":4093,"Print":4094,"weight":4095,"Ġuntil":4096,"strict":4097,"VM":4098,"inner":4099,"Ġpartic":4100,"cing":4101,"ĠProp":4102,"ĠAS":4103,"olr":4104,"inished":4105,"ront":4106,"php":4107,"parameters":4108,"Temp":4109,"ono":4110,"Ġjav":4111,"script":4112,"Socket":4113,"ASE":4114,"ĠIter":4115,"(/":4116,"Ġmessages":4117,"\":\"":4118,"Ġoc":4119,"mediate":4120,"('_":4121,"icro":4122,"Pri":4123,"segment":4124,"Ġexample":4125,"na":4126,"grade":4127,"cd":4128,"Bits":4129,"Pending":4130,"complete":4131,".',":4132,"Ġcould":4133,"roadcast":4134,"eting":4135,"Ġduring":4136,"blob":4137,"Convert":4138,"Wrapper":4139,"Ġthrough":4140,"execution":4141,"ĠUser":4142,"cum":4143,"Ġflag":4144,"Ġrows":4145,"]))":4146,"tbl":4147,"bot":4148,"igration":4149,"step":4150,"Ġpackage":4151,"salt":4152,"achyon":4153,"Ġenabled":4154,"Resources":4155,"strings":4156,"OS":4157,"Cloud":4158,"Ġdisplay":4159,"Ġfolder":4160,"site":4161,"enabled":4162,"React":4163,"arr":4164,"Ġmx":4165,"uit":4166,"foreach":4167,"Ġinner":4168,"Infos":4169,"Changed":4170,")(":4171,"folder":4172,"resol":4173,"Any":4174,"assertThat":4175,"Idx":4176,"ĠReg":4177,"ross":4178,"hes":4179,"Scan":4180,"EL":4181,"Validation":4182,"Ġcontaining":4183,"inputs":4184,"getType":4185,"retry":4186,"->_":4187,"DF":4188,"adding":4189,"ynamic":4190,"CESS":4191,"Insert":4192,"Ġlabels":4193,"ifest":4194,"\"}":4195,"55":4196,"Ġsent":4197,"Reactive":4198,"pology":4199,"Expected":4200,"Ġchain":4201,"Left":4202,"ui":4203,"ĠIndex":4204,"ifiers":4205,"selected":4206,"ixture":4207,"describe":4208,"ĠPath":4209,"Inst":4210,"Ġdisk":4211,"Done":4212,"ube":4213,"zure":4214,"acy":4215,"Ġabout":4216,"XX":4217,".*":4218,"lines":4219,"ĠEvent":4220,"Ġexecution":4221,"<?>":4222,"spect":4223,"Import":4224,"Over":4225,"Ġsave":4226,"28":4227,"Ġdisable":4228,"Ġown":4229,"Ġperform":4230,"poch":4231,"Analy":4232,"Ġraw":4233,"Enum":4234,"backend":4235,"ookie":4236,"Display":4237,"vars":4238,"Title":4239,"Hook":4240,"()->":4241,"Ġinternal":4242,"27":4243,"allel":4244,"Unable":4245,"Ġalways":4246,"Av":4247,"Backpressure":4248,"DIR":4249,"Ġimplied":4250,"Counter":4251,"button":4252,"Member":4253,"ycle":4254,">();":4255,"Conn":4256,"endor":4257,"Ġfactory":4258,"Deployment":4259,"Ġ{\"":4260,"ĠDEFAULT":4261,"Selection":4262,"memory":4263,"Ġshape":4264,"Ġtxn":4265,"eries":4266,"uce":4267,"Box":4268,"grpc":4269,"sec":4270,"Before":4271,"safe":4272,"Ġallowed":4273,"ReactiveX":4274,"Ġwould":4275,"attribute":4276,"ernal":4277,"____":4278,"Lower":4279,"cogn":4280,"Ġtheir":4281,"dash":4282,"rate":4283,"ĠWITHOUT":4284,"aml":4285,"getC":4286,"Ġgenerate":4287,"PATH":4288,"concat":4289,"ĠSub":4290,"Ġdomain":4291,"Ġbound":4292,"pred":4293,"uber":4294,"ases":4295,"ached":4296,"vide":4297,".\"\"\"":4298,"Ġassign":4299,"Contentlet":4300,"Collect":4301,"Ġmaximum":4302,"Init":4303,"emon":4304,"hip":4305,"MET":4306,"Ġprimary":4307,"GE":4308,"Ġcursor":4309,"Ġcancel":4310,"extra":4311,"23":4312,"Ġ};":4313,"Ġkeep":4314,"CONT":4315,"conditions":4316,"edException":4317,"pth":4318,"scriber":4319,"UNT":4320,"elcast":4321,"================":4322,"Ġmount":4323,"Layer":4324,"rad":4325,"uint":4326,"40":4327,"Ġfs":4328,"rest":4329,"settings":4330,"reed":4331,"Gen":4332,"attributes":4333,"alan":4334,"Clause":4335,"Bound":4336,"attent":4337,"Millis":4338,"liance":4339,"Datum":4340,"Ġday":4341,"tegration":4342,"light":4343,"alk":4344,")',":4345,"atest":4346,"Pod":4347,"Ġchanged":4348,".'":4349,"HTML":4350,"Objects":4351,"Ġpending":4352,"Ġpattern":4353,"calar":4354,"ka":4355,"Owner":4356,"ĠLog":4357,"driver":4358,"incip":4359,"cedure":4360,"Ġiss":4361,"media":4362,".\"":4363,"counter":4364,"InodePath":4365,"Ġjavax":4366,"owner":4367,"plan":4368,"ĠClient":4369,"Ġstats":4370,"Ġdefine":4371,"ĠPropTypes":4372,"ĠZ":4373,"Ġapplicable":4374,"incipal":4375,"Ġ})":4376,"RenderingEngine":4377,"rx":4378,"wd":4379,"Ms":4380,"avig":4381,"direct":4382,"comment":4383,"}),":4384,"gor":4385,"Adapter":4386,"Ġapplication":4387,"Ġvariables":4388,"istribution":4389,"Ġblocks":4390,"Complete":4391,"Ġsettings":4392,"toBe":4393,"executor":4394,"Ġip":4395,"Ġtk":4396,"iment":4397,"ĠQuery":4398,"tidb":4399,"plicit":4400,"ĠWARRANTIES":4401,"exit":4402,"lap":4403,"eeper":4404,"IS":4405,"flink":4406,"pfs":4407,"seconds":4408,"Ġet":4409,"ASI":4410,"]),":4411,"Ġ20":4412,"Man":4413,"Ġattributes":4414,"inherit":4415,"Ġpri":4416,"Ġpeer":4417,"LICENSE":4418,"Unique":4419,"impl":4420,"olute":4421,"vocation":4422,"Ġpersist":4423,"cursor":4424,"variables":4425,"tics":4426,"cpu":4427,"achment":4428,"Show":4429,"Ġ<<":4430,"loads":4431,"Delay":4432,"-------":4433,"builtin":4434,"Fil":4435,"WARN":4436,"Ġmetric":4437,"cessed":4438,"CS":4439,"26":4440,"Ġfetch":4441,"Ġsum":4442,"MD":4443,"xx":4444,"numpy":4445,"Literal":4446,"Ġtimestamp":4447,"Ġdetails":4448,">,":4449,"WORKER":4450,"sendBadge":4451,"Ġdeleted":4452,"disable":4453,"Ġdag":4454,"ĉĉĉ":4455,"Ġensure":4456,"ĠRuntime":4457,"Win":4458,"colors":4459,"Ġaccept":4460,"Ġident":4461,"Split":4462,"rant":4463,"timestamp":4464,"reader":4465,"havior":4466,"SET":4467,"Single":4468,"Bit":4469,"arge":4470,"Ġcommon":4471,"Ġunique":4472,"Ġrandom":4473,"trigger":4474,"uppress":4475,"Ġstill":4476,"NotExist":4477,"ĠRE":4478,"protocol":4479,"OK":4480,"ĠColumn":4481,"getKey":4482,"Pack":4483,"ĠWhen":4484,"pingcap":4485,"77":4486,"Ip":4487,"################":4488,"facebook":4489,"visit":4490,"css":4491,"Identity":4492,"ĠHashMap":4493,"istic":4494,"clare":4495,"Ġdriver":4496,"ANCE":4497,"NOT":4498,"Ġchildren":4499,"Ġpod":4500,"Preference":4501,"utom":4502,"Ġselected":4503,"artifact":4504,"ryption":4505,"Ġ{}\",":4506,"cons":4507,"Ġtrigger":4508,"cluded":4509,"sym":4510,"Bar":4511,"cheduled":4512,"Ġcompliance":4513,"itempty":4514,"Ġtags":4515,"ocus":4516,"createElement":4517,"Decimal":4518,"setScope":4519,"Ġparticular":4520,"eval":4521,"Opt":4522,"omitempty":4523,"}`":4524,"Ġbuf":4525,"ĠFlow":4526,"Ġct":4527,"TIMEOUT":4528,"starts":4529,"ĠLicensed":4530,"IDs":4531,"Ġfn":4532,"Ġdatetime":4533,"Modified":4534,"Opts":4535,"Attr":4536,"velo":4537,"Driver":4538,"__)":4539,"Ġvia":4540,"illi":4541,"Ġalloc":4542,"Ġspace":4543,"IVE":4544,"px":4545,"alloc":4546,"ĠName":4547,"shift":4548,"Ġonce":4549,"Ġmissing":4550,"getClass":4551,"ĠBoolean":4552,"ongo":4553,"Ġma":4554,"HERE":4555,"utf":4556,"Merge":4557,"akes":4558,"FE":4559,"Ġsuch":4560,"cursive":4561,"Ġ'\\\\":4562,"Tr":4563,"ummy":4564,"Own":4565,"Struct":4566,"REQUEST":4567,"zip":4568,"just":4569,"Ġbuilder":4570,"...)":4571,"Locked":4572,"ĠLT":4573,"netes":4574,"ubernetes":4575,"cr":4576,"Ġbreak":4577,"ĠKIND":4578,"Ġtmp":4579,"arm":4580,"ĠFl":4581,"sm":4582,"Tuple":4583,"MIN":4584,"OURCE":4585,"Failure":4586,"Ġpossible":4587,"Ġ1000":4588,"ruction":4589,"Ġassociated":4590,"Ġmetrics":4591,"Ġevery":4592,"gorith":4593,"ision":4594,"(-":4595,"found":4596,"Ġprint":4597,"release":4598,"Certificate":4599,"Ġpipeline":4600,"eq":4601,"conv":4602,"Ġstack":4603,"Implement":4604,"Ġstep":4605,"}\"":4606,"loaded":4607,"igin":4608,"Ġpd":4609,"60":4610,"ĠService":4611,"\\'":4612,"Ġcause":4613,"ĠĠĠĠĠĠĠĠĠĠĠĠĠĠ":4614,"Sql":4615,"Ġlistener":4616,"snapshot":4617,"ĠRequest":4618,"']['":4619,"embed":4620,"ĠSystem":4621,"Ġca":4622,"Total":4623,"lation":4624,"prise":4625,"astore":4626,"define":4627,"DITIONS":4628,"Password":4629,"Direct":4630,"LED":4631,"OB":4632,"NET":4633,"NUM":4634,"Ġdescription":4635,"pandas":4636,"CHE":4637,"Sw":4638,"78":4639,"Ġsetting":4640,"nan":4641,"Ġim":4642,"Ġel":4643,"Ġgover":4644,"Ġhapp":4645,"Ġap":4646,"izes":4647,"Week":4648,"Po":4649,"Ġreceived":4650,"Ġstd":4651,"ĠBASI":4652,"aved":4653,"Rest":4654,"ĠNOT":4655,"ĠFunction":4656,"category":4657,"Peer":4658,"configure":4659,"Ġcomplete":4660,"COL":4661,"optional":4662,"vendor":4663,"UUID":4664,"Ġowner":4665,"Eval":4666,"actions":4667,"Layout":4668,"ident":4669,"Ne":4670,"menu":4671,"Ġdist":4672,"gt":4673,"Gateway":4674,"Ġenum":4675,"uted":4676,"ORE":4677,"ixel":4678,"COMP":4679,"Ġindic":4680,"perations":4681,"irq":4682,"generate":4683,"Ġauthor":4684,"setConsistencyCheckLevel":4685,"ircuit":4686,"Register":4687,"Ġfunctions":4688,"ĠĠĠĠĠĠĠĠĠĠĠĠĠĠĠĠĠĠĠĠĠĠĠĠĠĠĠĠĠĠĠĠ":4689,"uplicate":4690,"Protocol":4691,"Bool":4692,"multi":4693,"Ġavoid":4694,"Ġoperations":4695,"ACE":4696,"Ġmeans":4697,"ssl":4698,"classes":4699,"ĠCall":4700,"ĠDis":4701,"peat":4702,"hell":4703,"ifies":4704,"Art":4705,"Hive":4706,"ĠAny":4707,"03":4708,"Ġexecutor":4709,"xc":4710,"Ġinstances":4711,"ĠRun":4712,"currency":4713,"ĠState":4714,"Hint":4715,"aggreg":4716,"tf":4717,"POST":4718,"iver":4719,"Ġcurrently":4720,"viders":4721,"ĠMath":4722,"}).":4723,"Ġexpr":4724,"WN":4725,"original":4726,"****************":4727,"messages":4728,"ome":4729,"Locale":4730,"Edit":4731,"bove":4732,"formed":4733,"ynt":4734,"visor":4735,"ĠHTTP":4736,"Warning":4737,"Bad":4738,"Progress":4739,"sTo":4740,"Nullable":4741,"edit":4742,"Ġspecify":4743,"(__":4744,"Ġplan":4745,"cm":4746,"ian":4747,"Ġmain":4748,"Ġwere":4749,"CP":4750,"ĠSoftware":4751,"fetch":4752,"obile":4753,"Ġ16":4754,"loader":4755,"getStatus":4756,"Ġput":4757,"ĠPre":4758,"indexOf":4759,"Ġshort":4760,"Docker":4761,"Ġprob":4762,"contact":4763,"inf":4764,"Send":4765,"vo":4766,"wf":4767,"ene":4768,"orld":4769,"tokens":4770,"Ġpresent":4771,"Ġanother":4772,"Fn":4773,"Zone":4774,"TableName":4775,"abc":4776,"Ġneeded":4777,"Ġhow":4778,"Unknown":4779,"Annotation":4780,"factory":4781,"Abstract":4782,"qb":4783,"artbe":4784,"Ġgoverning":4785,"profile":4786,"ti":4787,"Ġcorrespon":4788,"Ġdocumentation":4789,"Throwable":4790,"center":4791,"getPath":4792,"oll":4793,"INTER":4794,"Ġcfg":4795,"ĠBASIS":4796,"{@":4797,"Zigbee":4798,"Right":4799,"Symbol":4800,"stmt":4801,"Ġextra":4802,"My":4803,"Ġentries":4804,"inux":4805,"Visible":4806,"Ġagreed":4807,"Ġdestination":4808,"baz":4809,"('/":4810,"Cert":4811,"Ġtasks":4812,"operation":4813,"29":4814,"dr":4815,"Expect":4816,"SECON":4817,"ledger":4818,"BO":4819,"ĠTask":4820,"Ġweb":4821,"XT":4822,"Does":4823,"Ġlaw":4824,"Ġprovide":4825,"Ġfuture":4826,"pytest":4827,"checked":4828,"Statistics":4829,"tml":4830,"services":4831,"Ġgenerated":4832,"OG":4833,"Warnings":4834,"Ġclo":4835,"El":4836,"inct":4837,"lip":4838,"pattern":4839,"Backend":4840,"editor":4841,"Sha":4842,"'ll":4843,"layout":4844,"Ġ\"-":4845,"atched":4846,"Ġproxy":4847,"44":4848,"pod":4849,"rece":4850,"section":4851,"BLOCK":4852,"juju":4853,"TABLE":4854,"Ġcap":4855,"lets":4856,"JE":4857,"InputStream":4858,"ĠCONDITIONS":4859,"ART":4860,"uilt":4861,"rong":4862,"variant":4863,"Ġsplit":4864,"dices":4865,"artbeat":4866,"Ġperiod":4867,"functions":4868,"Ġtransform":4869,"sb":4870,"}/":4871,"HashMap":4872,"irr":4873,"Ġclosed":4874,"Ġrights":4875,"Ġlayer":4876,"Ġneeds":4877,"primary":4878,"ĠIllegalArgumentException":4879,"Ġinterval":4880,"IM":4881,"Lookup":4882,"writ":4883,"ĠUN":4884,"dispatch":4885,"Ġeven":4886,"Public":4887,"fully":4888,"Orig":4889,"'):":4890,"SU":4891,"Ġ\"+":4892,"Ġway":4893,"yield":4894,"encoding":4895,"Blocks":4896,"groups":4897,"Ġabove":4898,"Ġbit":4899,"ram":4900,"upplier":4901,"Usage":4902,"ĠHive":4903,"Execute":4904,"Ġchan":4905,"SERVER":4906,"Ġweek":4907,"payload":4908,"Environment":4909,"prev":4910,"added":4911,"Workflow":4912,"Buf":4913,"Ġmer":4914,"ĠNULL":4915,"logging":4916,"haz":4917,"Kit":4918,"pret":4919,"presto":4920,"ĠServer":4921,"required":4922,"Simple":4923,"agement":4924,"Ġmulti":4925,"ĠtestAcc":4926,".(*":4927,"zigbee":4928,"Ġlook":4929,"Ġclean":4930,"got":4931,"yntax":4932,"Ġstatement":4933,"SA":4934,"bserver":4935,"ĠValid":4936,"warning":4937,"registry":4938,"Blob":4939,"Frames":4940,"(:":4941,"maining":4942,"Ġinteger":4943,"endar":4944,"Ġzip":4945,"directory":4946,"Ġhand":4947,"Ġph":4948,"Ġpair":4949,"Ġlimitations":4950,"plot":4951,"59":4952,"Ġsalt":4953,"Dialog":4954,"EM":4955,"cape":4956,"ĠUnless":4957,"Append":4958,"Ġgraph":4959,"Ġdouble":4960,"Ġforce":4961,"flux":4962,"ĠCO":4963,"gorithm":4964,"ĠIP":4965,"Ġds":4966,"big":4967,"soft":4968,"Services":4969,"flags":4970,"ArrayList":4971,"Declaration":4972,"thread":4973,"ĠLe":4974,"ones":4975,"Branch":4976,"Ġresources":4977,"ĠResource":4978,"Dict":4979,"ĠConfig":4980,"encode":4981,"Ġsm":4982,"delta":4983,"Cannot":4984,"Tasks":4985,"ĠinodePath":4986,"Qual":4987,"Android":4988,"Journal":4989,"sequence":4990,"Ġ\"\\":4991,"Ġconstraint":4992,"Ġaggreg":4993,"FIX":4994,"ImmutableList":4995,"LETE":4996,"Ġpassword":4997,"Ġdelay":4998,"Tablet":4999,"mx":5000,"Paths":5001,")\")":5002,"Ġvalidation":5003,"Ġidentifier":5004,"Ġenable":5005,"Panel":5006,"Ġagent":5007,"zz":5008,"Ġsp":5009,"valuate":5010,"}));":5011,"Ġstored":5012,"ives":5013,"ĠclassName":5014,"('_'),":5015,"Ġextract":5016,"ression":5017,"Ġheaders":5018,"ceed":5019,"Ġyet":5020,"permiss":5021,"Ġcollect":5022,"rary":5023,"Ġreset":5024,"ining":5025,"'},":5026,"Running":5027,"username":5028,"Ġbegin":5029,"alancer":5030,"cessary":5031,"Offering":5032,"Ġcolor":5033,"als":5034,"Ġmatches":5035,"\"])":5036,"Ġeval":5037,"Ġreason":5038,"Ġray":5039,"pair":5040,"AA":5041,"Ġupdates":5042,"periment":5043,"wire":5044,"tasks":5045,"unable":5046,"udio":5047,"123":5048,"Alluxio":5049,"00000000":5050,"vlet":5051,"abil":5052,"mbers":5053,"sys":5054,"come":5055,"Upload":5056,"Ġpermission":5057,"Ġdue":5058,"vt":5059,"cert":5060,"levance":5061,"54":5062,"zer":5063,"Cre":5064,"BY":5065,"Extension":5066,"ulator":5067,"Ġutils":5068,"coords":5069,"eded":5070,"SchedulerSupport":5071,"IsNil":5072,"modules":5073,"Ġ''":5074,"pm":5075,"cancel":5076,"help":5077,"ommun":5078,"seq":5079,"Ġlogger":5080,"jor":5081,"SSION":5082,"constructor":5083,"AND":5084,"Ġdescri":5085,"prepare":5086,"38":5087,"Ġ(_":5088,"CIM":5089,"language":5090,"Ġtrack":5091,"Abs":5092,"ermine":5093,"lt":5094,"Ġ'_":5095,"Ġ'';":5096,"256":5097,"getString":5098,"Ġmapping":5099,"letableFuture":5100,"mixed":5101,"Ident":5102,"Extra":5103,"Export":5104,"olicies":5105,"framework":5106,"condition":5107,"ĠAND":5108,"Cfg":5109,"Dist":5110,"bright":5111,"ĠFlowable":5112,"Ġsetup":5113,"Ġprotocol":5114,"Shard":5115,"Ġwho":5116,"Ġ\"%":5117,"Publish":5118,"math":5119,"Ġlocale":5120,"Ġclear":5121,"Ġfoo":5122,"dia":5123,"nable":5124,"les":5125,"'];":5126,"resources":5127,"ertex":5128,"Can":5129,"ĠPromise":5130,"RITE":5131,"hing":5132,"Ġenvironment":5133,"COMMENT":5134,"binary":5135,"unique":5136,"tuple":5137,"39":5138,"ictionary":5139,"bid":5140,"Power":5141,"WE":5142,"Ġnever":5143,"SessionVars":5144,"Ġcs":5145,"SL":5146,"Ġexit":5147,"Ġissue":5148,".<":5149,"ducer":5150,"rincipal":5151,"listener":5152,"CHAN":5153,"37":5154,"Ġresolve":5155,"Ġmodify":5156,"Rules":5157,"ATURE":5158,"=%":5159,"compute":5160,"Ġservices":5161,"Suppress":5162,"Serializer":5163,"Google":5164,"letes":5165,"platform":5166,"ĠOpen":5167,"shared":5168,"Ġimplementation":5169,"Ġpack":5170,"Fetch":5171,"Ġcalc":5172,"Cpu":5173,"Uuid":5174,"Holder":5175,"640":5176,"lict":5177,"Ġcertificate":5178,"irror":5179,"ĠRead":5180,"Ġengine":5181,"JECT":5182,"assertFalse":5183,"ĠRemove":5184,"clone":5185,"ĠClose":5186,"Ġ([]":5187,"ulk":5188,"Ġcomment":5189,"Catalog":5190,"asset":5191,"ggle":5192,")?":5193,"Feature":5194,"Ġra":5195,"Ġoverride":5196,"Ġscheduler":5197,"Ġlogging":5198,"operator":5199,"Cancel":5200,"Observable":5201,"Ġcheckpoint":5202,"NONE":5203,"arguments":5204,"deep":5205,"clus":5206,"Ġflow":5207,"Ġ200":5208,"Ġroute":5209,"future":5210,"Ġraise":5211,"Uint":5212,"ĠdbName":5213,"isset":5214,"pared":5215,"ĠTABLE":5216,"kind":5217,"Ġreserv":5218,"duce":5219,"Ġconn":5220,"SY":5221,"outputs":5222,"Checkpoint":5223,"()}":5224,"dot":5225,"Ġfilename":5226,"EC":5227,"Ġuses":5228,"gc":5229,"LINE":5230,"aging":5231,"Ġloaded":5232,"21":5233,"Ġrequested":5234,"writer":5235,"year":5236,"scale":5237,"Contains":5238,"Ġ).":5239,"Ġtitle":5240,"Ġte":5241,"ĠMake":5242,"++;":5243,"declare":5244,"arol":5245,"Ġauto":5246,"au":5247,"History":5248,"irm":5249,"rules":5250,"DataSource":5251,"td":5252,"marshal":5253,"tab":5254,"disk":5255,"afka":5256,"Ġplace":5257,"Ind":5258,"holder":5259,"Tp":5260,"AIN":5261,"Vector":5262,"TEXT":5263,"aut":5264,"ĠTHE":5265,"ĠtableName":5266,"existing":5267,"checkpoint":5268,"orary":5269,"BER":5270,"Ġparsed":5271,"Matrix":5272,"atter":5273,"DateTime":5274,"mbed":5275,"layers":5276,"Ġloop":5277,"structs":5278,"]['":5279,"defaults":5280,"ĠConfiguration":5281,"scheduler":5282,"Tests":5283,"Ġprev":5284,"Ġ/>":5285,"Ġexport":5286,"Random":5287,"lers":5288,"ilium":5289,"fony":5290,"ace":5291,"DoesNotExist":5292,"Ca":5293,"Ġdst":5294,"STATE":5295,"PACK":5296,"Ġeditor":5297,"Ġfill":5298,"Validator":5299,"Ġrelease":5300,"diff":5301,"locale":5302,"Ġufs":5303,"hour":5304,"Slice":5305,"Ġsorted":5306,"junit":5307,"StateException":5308,"catalog":5309,"Common":5310,"setup":5311,"APP":5312,"dc":5313,"Ġfailure":5314,"Ġverify":5315,"sample":5316,"Skip":5317,"Ġ'.":5318,"ByName":5319,"utomat":5320,"Transport":5321,"Ġalias":5322,"\"].":5323,"LS":5324,"unding":5325,"ĠMono":5326,"Ġaws":5327,"Ġchecks":5328,"abilities":5329,"scroll":5330,"Ġhead":5331,"Ġtake":5332,"Bean":5333,"persist":5334,"=\"\"":5335,"Ġpop":5336,"uuid":5337,"88":5338,"Ġbranch":5339,"ĠAuth":5340,"annotation":5341,"Ġsepar":5342,"Period":5343,"ĠStorage":5344,"Head":5345,"imation":5346,"wordpress":5347,"riteria":5348,"cryption":5349,"Ġprovider":5350,"Ġslice":5351,"Locator":5352,"()[":5353,"relation":5354,"fire":5355,"weekdays":5356,"Partitions":5357,"LOW":5358,"Ġconcat":5359,"Ġabs":5360,"=(":5361,"ython":5362,"rivilege":5363,"VERSION":5364,"Ġcalls":5365,"Iss":5366,"kernel":5367,"Ġtimes":5368,"ention":5369,"Mapper":5370,"Ġapplied":5371,"tc":5372,"valueOf":5373,"aN":5374,"Ġalt":5375,"Agg":5376,"Payload":5377,"){":5378,"Ġblob":5379,"Ġcls":5380,"Ġbinary":5381,"Ġmoment":5382,"pd":5383,"66":5384,"Ġreader":5385,"Ġdefaults":5386,"Ġts":5387,"symbol":5388,"Ge":5389,"months":5390,"sn":5391,"(@":5392,"Same":5393,"Ġdebug":5394,"STAT":5395,"zigbeeModel":5396,"ARY":5397,"Enable":5398,"compare":5399,"WRITE":5400,"Summary":5401,"Contain":5402,"Ġseconds":5403,"term":5404,"Constraints":5405,"Ġcached":5406,"Timer":5407,"Ġrest":5408,"Updates":5409,"RUN":5410,"andid":5411,"CREATE":5412,"font":5413,"dump":5414,"helper":5415,"ĠIsNil":5416,"Ġlater":5417,"ĠWHERE":5418,"ises":5419,"Flush":5420,"signed":5421,"Ġdid":5422,"PORT":5423,"Mgr":5424,"ĠFound":5425,"rec":5426,"Ufs":5427,"hazelcast":5428,"ĠDataset":5429,"socket":5430,"ota":5431,"Constructor":5432,"Tracker":5433,"Ġwhat":5434,"ĠOr":5435,"Ġmember":5436,"Ġselection":5437,"colorscheme":5438,"ĠDelete":5439,"Ġmight":5440,"ypes":5441,"ĠInt":5442,"Ġjournal":5443,"Ġbackend":5444,"AUT":5445,"Regex":5446,"gative":5447,"plugins":5448,"CLIENT":5449,"Collections":5450,"STORE":5451,"Ġdesc":5452,"Ġoperate":5453,"gb":5454,"serialize":5455,"short":5456,"CAC":5457,"Ġmatching":5458,"LOB":5459,".</":5460,"tz":5461,"INST":5462,"Ġpred":5463,"TES":5464,"ĠJob":5465,"Break":5466,"ffic":5467,"(?:":5468,"Ġnative":5469,"Coordin":5470,"Loop":5471,"Ġsets":5472,"Gran":5473,"Round":5474,"mapping":5475,"Replace":5476,"PT":5477,"changed":5478,"Ġoperators":5479,"Ġcontroller":5480,"ĠSeries":5481,"schedule":5482,"Grid":5483,"xb":5484,"ird":5485,"Primary":5486,"reser":5487,"05":5488,"Ġupload":5489,"Ġcompat":5490,"duration":5491,"Ġwell":5492,"otes":5493,"shutdown":5494,"Package":5495,"Ġtypeof":5496,"Charset":5497,"Iterable":5498,"ctor":5499,"analy":5500,"Ġinputs":5501,"dst":5502,"ĠLogger":5503,"Such":5504,"GetSessionVars":5505,"LOGGER":5506,"ĠMeta":5507,"Ġsupp":5508,"(!":5509,"ores":5510,"ĠStream":5511,"\\\\.":5512,"Ġamount":5513,"Ġdetermin":5514,"parameter":5515,"&&":5516,"Entries":5517,"ssh":5518,"ĠCreates":5519,"Ma":5520,"compile":5521,"quote":5522,"period":5523,"missing":5524,"protobuf":5525,"Foo":5526,"aterial":5527,"Elements":5528,"ighl":5529,"will":5530,"paths":5531,"Ġbehavior":5532,"ather":5533,"illa":5534,"ĠRet":5535,"lack":5536,"CA":5537,"Arrays":5538,"gest":5539,"MAN":5540,"Ġ/\\":5541,"verage":5542,"ĠBY":5543,"Ġsubject":5544,"erature":5545,"upload":5546,"ĠStart":5547,"ROUP":5548,"same":5549,")[":5550,"druid":5551,"Sp":5552,"enum":5553,"Ġtables":5554,"plain":5555,"wrapper":5556,"ĠBase":5557,"ĠST":5558,"Bus":5559,"ĠBuild":5560,"ĠResponse":5561,"Ġmost":5562,"arator":5563,"foc":5564,"deprecated":5565,"matches":5566,"TestCheck":5567,"Ġinvok":5568,"ĠNumber":5569,"allback":5570,"inger":5571,"Ġside":5572,"Artifact":5573,"Checker":5574,"ĠUSER":5575,"torch":5576,"ĠParse":5577,"Tab":5578,"none":5579,"VENT":5580,"Ġlookup":5581,"Term":5582,"Double":5583,"Health":5584,"DDL":5585,"netty":5586,"Selected":5587,"'].":5588,"ressed":5589,"Ġvisit":5590,"SuppressWarnings":5591,"Month":5592,"Ġcorresponding":5593,"ĉĉĉĉ":5594,"Ġcert":5595,"Ġmachine":5596,"python":5597,"Present":5598,"Deprecated":5599,"Rate":5600,"Ġzero":5601,"Ġduration":5602,"Hand":5603,"ĠTypeError":5604,"Ġignored":5605,"Ġfree":5606,"xf":5607,"Ġreserved":5608,"}.</":5609,"calc":5610,"Watch":5611,"units":5612,"Ġ'\"":5613,"Det":5614,"Ġcontrol":5615,"\".\"":5616,"disabled":5617,"initions":5618,"synchronized":5619,"ĠRuntimeException":5620,"Consumer":5621,"When":5622,"ceeded":5623,"tempts":5624,"balance":5625,"ĠTimeUnit":5626,"flag":5627,"~~":5628,"Inject":5629,"updated":5630,"Ġrequires":5631,"constraint":5632,"bad":5633,"/>":5634,"double":5635,"Ġweight":5636,"Ġsources":5637,"Ġoccur":5638,"GB":5639,"Ġcondition":5640,"ively":5641,"ĠCache":5642,"product":5643,"DoesNotExistException":5644,"elect":5645,"Ġpayload":5646,"86":5647,"09":5648,"must":5649,"ada":5650,"Writ":5651,"Ġrules":5652,"parts":5653,"svg":5654,"ĠMASTER":5655,"clud":5656,"/%":5657,"ipping":5658,":`~":5659,"Std":5660,"Ġthose":5661,"atten":5662,"ALI":5663,"Raises":5664,"Ġ64":5665,"feature":5666,"ĠMessage":5667,"Ġ[{":5668,"Ġmanager":5669,"'}":5670,"Procedure":5671,"AWS":5672,"bundle":5673,"Ġhint":5674,"ighlight":5675,"det":5676,"xd":5677,"android":5678,"archar":5679,"EXT":5680,"Ġfeature":5681,"indices":5682,"Validate":5683,"single":5684,">{@":5685,"ethe":5686,"Ġmodels":5687,"TEST":5688,"Messages":5689,"Relationship":5690,"rift":5691,"ymfony":5692,"ENABLE":5693,"Ġ$__":5694,"requireNonNull":5695,"itu":5696,"Diff":5697,"Listeners":5698,"Ġ_.":5699,"ĠObservableSource":5700,"31":5701,"DATA":5702,"Supplier":5703,"Ġpromise":5704,"outer":5705,"features":5706,"isArray":5707,"reduce":5708,"hi":5709,")):":5710,"FIG":5711,"romethe":5712,"Ġmove":5713,"rometheus":5714,"pad":5715,"decode":5716,"VALID":5717,"control":5718,"Bin":5719,"ough":5720,"Scheme":5721,"argument":5722,"fin":5723,"Physical":5724,"transfer":5725,"LIST":5726,"Roles":5727,"anti":5728,"../../":5729,"Ġandroid":5730,"flush":5731,"Save":5732,"dfs":5733,"TestCase":5734,"Binding":5735,"txt":5736,"ĠImp":5737,"Backup":5738,"Requests":5739,"git":5740,"getInstance":5741,"aria":5742,"each":5743,"RuntimeException":5744,"Ġdocker":5745,"Ġbackpressure":5746,"=\"\">":5747,"ĠAtom":5748,"Ġrelative":5749,"Seq":5750,"UD":5751,"onical":5752,"Ġbig":5753,"----------------------------------------------------------------":5754,"ĠEquals":5755,"Icon":5756,"geo":5757,":%":5758,"Parts":5759,"bus":5760,"keep":5761,"mule":5762,"cid":5763,"extension":5764,"Ġcoordinator":5765,"ĠSets":5766,"Ġtokens":5767,"ometry":5768,"ORY":5769,"uiltinFunc":5770,"Replication":5771,"ĠDOM":5772,"ifec":5773,"Condition":5774,"datasource":5775,"Predicate":5776,"Ġ11":5777,"ĠFoundation":5778,"Implemented":5779,"ĠAtt":5780,"Syn":5781,"Ġ?',":5782,"trim":5783,"Created":5784,"Pointer":5785,"arb":5786,"cluding":5787,"Ġexplicit":5788,"48":5789,"ari":5790,"ifecycle":5791,"76":5792,"Ġmut":5793,"tm":5794,"FT":5795,"Ġpe":5796,"Ġsecret":5797,"Tensor":5798,"ĠPublic":5799,"contacts":5800,"(\"[":5801,"Ġcreating":5802,"Ġselector":5803,"Methods":5804,"usted":5805,"created":5806,"some":5807,"ublished":5808,"Sets":5809,"kv":5810,"ĠDot":5811,"Ġty":5812,"gers":5813,"Ġcont":5814,"Ġshared":5815,"ĠLoad":5816,"atio":5817,"Ġnumpy":5818,"Ġdisabled":5819,"relevance":5820,"draw":5821,"acters":5822,")\\":5823,"Ġdirectly":5824,"ĠDes":5825,"ĠEX":5826,"ulated":5827,"ADD":5828,"Arguments":5829,"stdout":5830,"ks":5831,"Year":5832,"once":5833,"Ġtorch":5834,"brightness":5835,"Ġmany":5836,"Ġsys":5837,"Ġpaths":5838,"ĠGets":5839,"Scale":5840,"pick":5841,"branch":5842,"TTL":5843,"Ġseries":5844,"Ġ\"\"\"":5845,"Ġless":5846,"Registration":5847,"room":5848,"iddle":5849,"ĠChannel":5850,"rain":5851,"Ġtoo":5852,"ideo":5853,"DU":5854,"ATED":5855,"contentlet":5856,"Ġids":5857,"xe":5858,"ypervisor":5859,"ĠOnly":5860,"watch":5861,"exceptions":5862,"ĠAtomic":5863,"Unexpected":5864,"Aggregator":5865,"PathException":5866,"helpers":5867,"bose":5868,"Ġexec":5869,"BACK":5870,"ContentType":5871,"Ġprofile":5872,"initialize":5873,"emit":5874,"Ġcompleted":5875,"legate":5876,"See":5877,"mi":5878,"Strings":5879,"Ġcharacter":5880,"ĠVM":5881,"Testing":5882,"filters":5883,"Sdk":5884,"NotFoundException":5885,"yy":5886,"Ġcopyright":5887,"Ġlet":5888,"aged":5889,"ĠGeneral":5890,"Ġdimension":5891,"Ġaddr":5892,"Ġalong":5893,"lc":5894,"Ġpylint":5895,"Ġhook":5896,"Clo":5897,"mean":5898,"IST":5899,"Ġ/*":5900,"extract":5901,"////////////////":5902,"Ġhappen":5903,"failure":5904,"Ġscript":5905,"Ġconfigured":5906,"ĠText":5907,"Ġ30":5908,"install":5909,"Ġswitch":5910,"translate":5911,"cell":5912,"Ġrs":5913,"SD":5914,"Ġfails":5915,"Suffix":5916,"ĠDocument":5917,"Ġcho":5918,"Ġmonth":5919,"accept":5920,"ĠWORK":5921,"ENTI":5922,"Ġforward":5923,"Ġstarted":5924,"sk":5925,"MPTY":5926,"iration":5927,"parsed":5928,"WOR":5929,"Ġuri":5930,"uest":5931,"ĠContext":5932,"volt":5933,"42":5934,"Ġconfigure":5935,"Te":5936,"orp":5937,"LOC":5938,"Ġ\")":5939,"Nd":5940,"OutputStream":5941,"35":5942,"ysis":5943,"creen":5944,"MAT":5945,"ito":5946,"Ġ{!":5947,"lies":5948,"Ġdeprecated":5949,"xa":5950,"Nan":5951,"Trigger":5952,"}'":5953,"Addresses":5954,"Focus":5955,"Exit":5956,"Ġleast":5957,"sleep":5958,"ĠByte":5959,"icode":5960,"ĠisNull":5961,"Actions":5962,"regex":5963,"Ġproper":5964,"ĠWeb":5965,"submit":5966,"forward":5967,"Inspect":5968,"shard":5969,"pk":5970,"Ġparser":5971,"Completed":5972,"avigation":5973,"srv":5974,"ets":5975,"ynchronous":5976,"Ġran":5977,"Ġtermin":5978,"Ġretrieve":5979,"Ġcop":5980,"scal":5981,"cision":5982,"Track":5983,"semb":5984,"ĠImmutable":5985,"uncate":5986,"ĠHT":5987,"Ġkeyword":5988,"WithStack":5989,"reater":5990,"icrosoft":5991,"Ġcompute":5992,"getFile":5993,"Ġknow":5994,"Ġstarting":5995,"Conditions":5996,"Watcher":5997,"Ġ'./":5998,"latest":5999,"ĠOther":6000,"posed":6001,"Ġresulting":6002,"Big":6003,"}},":6004,"workflow":6005,"Ġiterator":6006,"ga":6007,"ĠAbstract":6008,"Sl":6009,"Ġusers":6010,"Ġcalling":6011,"Ġconsider":6012,"Destroy":6013,"cached":6014,"loss":6015,"leton":6016,"Matcher":6017,"Email":6018,"\\\":":6019,"]',":6020,"NODE":6021,"zilla":6022,"processor":6023,"CACHE":6024,"Ġadmin":6025,"reject":6026,"COUNT":6027,"Could":6028,"\"):":6029,"Dependency":6030,"Concept":6031,"previous":6032,"vals":6033,"that":6034,"attention":6035,"Variables":6036,"real":6037,"Ġcaller":6038,"70":6039,"SECONDS":6040,"Ġannot":6041,"erruptedException":6042,"XML":6043,"Ġcomb":6044,"Capacity":6045,"{'":6046,"Find":6047,"compiler":6048,"Setting":6049,"Push":6050,"ifications":6051,"Widget":6052,"aris":6053,"cores":6054,"vs":6055,"refresh":6056,"Ġremo":6057,"Void":6058,"ACT":6059,"allowed":6060,"ĠCommand":6061,"atient":6062,"Ġfz":6063,"ĠIterable":6064,"Ġworkflow":6065,"aries":6066,"Available":6067,"Mirror":6068,"OwnProperty":6069,"strictEqual":6070,"under":6071,"Volt":6072,"Ġdeployment":6073,"transport":6074,"Rec":6075,"getData":6076,"exclude":6077,"Ġreal":6078,"Arch":6079,"USE":6080,"Resp":6081,"components":6082,"2011":6083,"Note":6084,"ĠWork":6085,"ookies":6086,"clean":6087,"Audit":6088,"MetaData":6089,"osite":6090,"ĠIgn":6091,"Ġtesting":6092,"Ġruntime":6093,"tensor":6094,"Ġattempt":6095,"Ġspecial":6096,"Ġ'#":6097,"Ġ15":6098,"Ġcontents":6099,"Ġbar":6100,"Ġlines":6101,"agg":6102,"Ġnecessary":6103,"Ġ'-":6104,"ĠOS":6105,"ufs":6106,"UTC":6107,"numeric":6108,"ĠExecutor":6109,"uppet":6110,"Used":6111,"||":6112,"ĠDict":6113,"Ġ(:":6114,"panded":6115,"Calc":6116,"ane":6117,"amount":6118,"running":6119,"strip":6120,"Private":6121,"details":6122,"gacy":6123,"Plugins":6124,"win":6125,"issues":6126,"Ġprevent":6127,"Ġoptim":6128,"','":6129,"GroupBy":6130,"relative":6131,"NAL":6132,"oreign":6133,"']))":6134,"Ġmodified":6135,"Relation":6136,"fc":6137,"omething":6138,"Dispatch":6139,"Ġpol":6140,"plicas":6141,"Ġround":6142,"(\"\\":6143,"ĠWORKER":6144,"ACL":6145,"ned":6146,"NdEx":6147,"GenWithStack":6148,"iases":6149,"strong":6150,"Ġnamed":6151,"resourceName":6152,"ĠPAR":6153,"ByArgs":6154,"getUser":6155,"Subject":6156,"erate":6157,"documentation":6158,"have":6159,"ATOR":6160,"CR":6161,"reactiv":6162,"Ġextension":6163,">',":6164,"repr":6165,"lookup":6166,"Ġscale":6167,"tableName":6168,"Commands":6169,"Ġreceive":6170,"Classes":6171,"seed":6172,"ĠGroup":6173,"widget":6174,"}]":6175,"90":6176,"acc":6177,"reactivex":6178,"race":6179,"Ġrelated":6180,"Ġdel":6181,"Ġ\"'":6182,"[-":6183,"Ġpur":6184,"selector":6185,"LOAD":6186,"2000":6187,"Notification":6188,">}":6189,"Ġkv":6190,"Static":6191,"sq":6192,"Ġcreates":6193,"Ġ{{":6194,"exc":6195,"\\.":6196,"rial":6197,"arded":6198,"CHECK":6199,"UI":6200,"traceur":6201,"trols":6202,"Solr":6203,"screen":6204,"RAY":6205,"ĠModel":6206,"substring":6207,"Ġda":6208,"Ġbutton":6209,"Ġcontinue":6210,"ĠDB":6211,"construct":6212,"ĠSh":6213,"nn":6214,"ĠGe":6215,"Ġbelow":6216,"Ġyear":6217,"Reser":6218,"('./":6219,"Constant":6220,"EventListener":6221,"Ġshift":6222,"environment":6223,"erms":6224,"ĠRPC":6225,"mach":6226,"Missing":6227,"ĠFOR":6228,"Ġgc":6229,"Ġlon":6230,"asurement":6231,"repository":6232,"aching":6233,"Credentials":6234,"Ġimmediate":6235,"alysis":6236,"Seconds":6237,"raises":6238,"ClassName":6239,"//!":6240,"Ġshutdown":6241,"tlc":6242,"tls":6243,"Ġprogress":6244,"Ġlatest":6245,"pture":6246,"CONFIG":6247,"}()":6248,"Closed":6249,"progress":6250,"ĠSE":6251,"runs":6252,"most":6253,"ially":6254,"InodeTree":6255,"ceptor":6256,"Units":6257,"Allowed":6258,"isF":6259,"vol":6260,"Login":6261,"HOST":6262,"login":6263,"Ġwarning":6264,"External":6265,"anization":6266,"hbase":6267,"EY":6268,"pid":6269,"Monitor":6270,"Ġdispatch":6271,"ulation":6272,"orical":6273,"olders":6274,"FROM":6275,")$":6276,"tinu":6277,"TLS":6278,"uting":6279,"ĠAc":6280,"alpha":6281,"cb":6282,"blocks":6283,"localhost":6284,"fp":6285,"csv":6286,"ACTION":6287,"compat":6288,"Org":6289,"sired":6290,"Ġhaving":6291,"REG":6292,"Ġnothing":6293,"Cell":6294,"edis":6295,"Servlet":6296,"Center":6297,"Components":6298,"statement":6299,"Ġinitialize":6300,"loop":6301,"START":6302,"Ġvol":6303,"identity":6304,"LOBAL":6305,"Ġprogram":6306,"Ġsim":6307,"ĠTrans":6308,"Observer":6309,"Ġtt":6310,"ingerprint":6311,"VirtualMachine":6312,"antic":6313,"Printf":6314,"ĠĠĠĠĠĠĠĠĠĠĠĠĠĠĠĠĠĠĠĠĠĠĠ":6315,"Ti":6316,"Ġencoding":6317,"Ġsample":6318,"UND":6319,"Ġshard":6320,"println":6321,"increment":6322,"mos":6323,"PREFIX":6324,"subject":6325,"``.":6326,"bottom":6327,"Should":6328,"Ġclasses":6329,"EW":6330,"deployment":6331,"requ":6332,"Ġgroups":6333,"woc":6334,"Ġinside":6335,"CCESS":6336,"Infof":6337,"Ġflags":6338,"Segments":6339,"Ġrestore":6340,"DERFS":6341,"ĠStringUtils":6342,"Ġ32":6343,"Preconditions":6344,"pps":6345,"ridge":6346,"GR":6347,"Ġdictionary":6348,"ĠThread":6349,"archive":6350,"dom":6351,"Ġrename":6352,"Converter":6353,"sistent":6354,"Ranges":6355,"Ġpredicate":6356,"Main":6357,"Tick":6358,"keywords":6359,"Ġsecurity":6360,"Ġtab":6361,"ĠTuple":6362,"pach":6363,"CLASS":6364,"logical":6365,"ĠField":6366,"rename":6367,"ĠKEY":6368,"uses":6369,"arison":6370,"('.":6371,"Span":6372,"destination":6373,"Ġhold":6374,"Ġdiff":6375,"dns":6376,"iag":6377,"may":6378,"Connector":6379,"correct":6380,">)":6381,"asList":6382,"present":6383,"Ġallows":6384,"contain":6385,"cook":6386,"Cons":6387,"ĠHTML":6388,"46":6389,"TRI":6390,"Ġroom":6391,"ssql":6392,"Ġmask":6393,"classmethod":6394,"Ġzone":6395,"Ġcases":6396,"Many":6397,"ders":6398,"indexer":6399,"ench":6400,"Ġregistered":6401,"clusive":6402,"Sent":6403,"Amount":6404,"unce":6405,"enk":6406,"summary":6407,"getCurrent":6408,"called":6409,"HEAD":6410,"dv":6411,"icle":6412,"75":6413,"ENABLED":6414,"spi":6415,"/'":6416,"Ġmixed":6417,"ĠSingle":6418,"ĠSpec":6419,"Ġdetect":6420,"focus":6421,"logs":6422,"peed":6423,"Ġ\"\")":6424,"coming":6425,"WEB":6426,"Ġassume":6427,"mes":6428,"ager":6429,"LowerCase":6430,"Ġ\"$":6431,"eth":6432,"Ġ//=>":6433,"Ġautomat":6434,"changes":6435,"UPDATE":6436,"stor":6437,"ARCH":6438,"Asset":6439,"ĠParam":6440,"Instances":6441,"instances":6442,"ĠcoordinatorEndpoint":6443,"Information":6444,"Ġmedia":6445,"ailability":6446,"itude":6447,"Ġagainst":6448,"Issue":6449,"ĠstartTime":6450,"Functions":6451,"grid":6452,"Ġsimple":6453,"fix":6454,"Ġpick":6455,"Ok":6456,"08":6457,"Factor":6458,"need":6459,"argin":6460,"otion":6461,"tests":6462,"Ab":6463,"score":6464,"fd":6465,"ILITY":6466,"49":6467,"kdir":6468,"ixin":6469,"loor":6470,"{}{":6471,"Azure":6472,"lism":6473,"alter":6474,"achClient":6475,"Ġdependencies":6476,"proc":6477,"getHost":6478,"Mobile":6479,"umb":6480,"1234":6481,"ToString":6482,"Tool":6483,"ĠPh":6484,"generator":6485,"stim":6486,"DELETE":6487,"tion":6488,"Ġincluded":6489,"Members":6490,"past":6491,"toEqual":6492,"Ġexternal":6493,"Since":6494,"NU":6495,"}\",":6496,"ĠCompletableFuture":6497,"adow":6498,"ĠPRO":6499,"Ġmenu":6500,"entic":6501,"[]{":6502,"Ġdetermine":6503,"validation":6504,"Vertex":6505,"Already":6506,"ĠĠĠĠĠĠĠĠĠĠĠĠĠĠĠĠĠ":6507,"wp":6508,"redis":6509,"ipe":6510,"allelism":6511,"history":6512,"pub":6513,"Authorization":6514,"ĠLink":6515,"Ġhelper":6516,"erial":6517,"Ġinstall":6518,"ASH":6519,"Normal":6520,"Encoding":6521,"ategories":6522,"voice":6523,"Ġ'<":6524,"Ġlambda":6525,"TAG":6526,"implement":6527,"GLOBAL":6528,"zk":6529,"]],":6530,"Debugf":6531,"FileInfo":6532,"Ġactually":6533,"ĠJava":6534,"TF":6535,"ĠOrder":6536,"Real":6537,"DbName":6538,"Ġscan":6539,"=['":6540,"posal":6541,"Phase":6542,"06":6543,"Ġcompare":6544,"AMP":6545,"mber":6546,"Scroll":6547,"cesses":6548,"ĠOtherwise":6549,"ĠLIC":6550,"quival":6551,"runner":6552,"Ġ\"--":6553,"atted":6554,"Ġrepresents":6555,"cmp":6556,"tle":6557,"dater":6558,"Verify":6559,"LY":6560,"contents":6561,"MIL":6562,"related":6563,"Detail":6564,"ĠURI":6565,"]).":6566,"iry":6567,"Shutdown":6568,"CODE":6569,"rained":6570,"ars":6571,"Ġevalu":6572,"Ġprocessing":6573,"Ġlower":6574,"UES":6575,"Marshal":6576,"Router":6577,"CONNE":6578,"INFO":6579,"PropTypes":6580,"ErrorResponse":6581,"Ġtu":6582,"Lib":6583,"addAll":6584,"Ġdefinition":6585,"ĠLI":6586,"hape":6587,"structure":6588,"Ġcleanup":6589,"UTF":6590,"indexes":6591,"Ġcreation":6592,"delay":6593,"GenWithStackByArgs":6594,"NETWORK":6595,"oring":6596,"invoke":6597,"Tokens":6598,"Feed":6599,"YYY":6600,"AtA":6601,"ading":6602,"promise":6603,"activ":6604,"Dimension":6605,"lying":6606,"izing":6607,"gl":6608,"centage":6609,"urerm":6610,"requests":6611,"tables":6612,"CMD":6613,"fake":6614,"objects":6615,"sim":6616,"LEN":6617,"ood":6618,"dataRepo":6619,"Ġpkg":6620,"axes":6621,"chor":6622,"ashboard":6623,"appings":6624,"ĠNull":6625,"Ġcontentlet":6626,"FEATURE":6627,"45":6628,"PU":6629,"Records":6630,"CONTENT":6631,"Managed":6632,"ĠjQuery":6633,"LAN":6634,"Begin":6635,"zero":6636,"ĠEd":6637,"ctxt":6638,"Place":6639,"free":6640,"ĠFI":6641,"Answer":6642,"PUT":6643,"notify":6644,"ĠImage":6645,"reason":6646,"NC":6647,"entries":6648,"Ġ,":6649,"optim":6650,"BE":6651,"MMM":6652,"Ġrec":6653,"bern":6654,"Ġdimensions":6655,"ĠAccess":6656,"Ġknown":6657,"getLogger":6658,"track":6659,"ank":6660,"parator":6661,"Ġconstructor":6662,"finish":6663,"Ġjc":6664,"ĠCollections":6665,"Ġpublish":6666,"INTERVAL":6667,"Intent":6668,"Enter":6669,"gateway":6670,"ov":6671,"Packet":6672,"tick":6673,"Ġrecords":6674,"sources":6675,"ĠGraph":6676,"ociation":6677,"PROPER":6678,"Ġsafe":6679,"Weight":6680,"Ġabstract":6681,"ural":6682,"Ġsignal":6683,"NUMBER":6684,"ottom":6685,"Accept":6686,"Ġgets":6687,"ĠMulti":6688,"MESS":6689,"ĠAction":6690,"Ġqual":6691,"AUTH":6692,"Ġedit":6693,"Ġsubscri":6694,"FieldType":6695,"rp":6696,"mssql":6697,"meth":6698,"Ġemail":6699,"border":6700,"subscribe":6701,"override":6702,"Ġwire":6703,"atomic":6704,"ike":6705,"hex":6706,"Users":6707,"ĠFileDoesNotExistException":6708,"Ġcharacters":6709,"Apply":6710,"lix":6711,"lev":6712,"')->":6713,"Ġhour":6714,"ĠYYYY":6715,"Ready":6716,"bernate":6717,"vir":6718,"stderr":6719,"Ġge":6720,"mpt":6721,"dating":6722,"ught":6723,"lat":6724,"ĠInvalidPathException":6725,"area":6726,"groupby":6727,"yaml":6728,"unlock":6729,"integer":6730,"hostname":6731,"Ġmath":6732,"Ġuseful":6733,"commands":6734,"Dependencies":6735,"ĠSymfony":6736,"Leader":6737,"ĠInput":6738,"SUCCESS":6739,"Ġcast":6740,"INSTANCE":6741,"Keyword":6742,"ctr":6743,"poses":6744,"trl":6745,"Ġtc":6746,"Ġmerged":6747,"ensitive":6748,"Front":6749,"Without":6750,"large":6751,"ables":6752,"mitted":6753,"mac":6754,"Rpc":6755,"router":6756,"Ġ'\\":6757,"hasOwnProperty":6758,"tool":6759,"using":6760,"Transformer":6761,"uffers":6762,"Ġparts":6763,">()":6764,"ĠExample":6765,"-%":6766,"Finish":6767,"ĠHashSet":6768,"Linux":6769,"redirect":6770,"Ġtranslate":6771,"Release":6772,"ership":6773,"Ġnote":6774,"Go":6775,"ĠLICENSE":6776,"ĠAs":6777,"Ġmean":6778,"ĠOut":6779,"Ġ50":6780,"Ġsupplied":6781,"enkins":6782,"channels":6783,"assertNotNull":6784,"Ġreject":6785,"ĠAssert":6786,"FL":6787,"PH":6788,"Ġflush":6789,"vpc":6790,"Ġsb":6791,"Ġjobs":6792,"79":6793,"Ġpartitions":6794,"Ports":6795,"Trim":6796,"Ġindicates":6797,"dirname":6798,"visible":6799,"Unix":6800,"Cor":6801,"attery":6802,"VICE":6803,"Ġretrie":6804,"acl":6805,"cirq":6806,"(**":6807,"Reset":6808,"ernel":6809,"Union":6810,"Ġisn":6811,"crypto":6812,"_();":6813,"virtual":6814,"ĠFind":6815,"ĠPer":6816,"DED":6817,"proj":6818,"bb":6819,"FunctionClass":6820,"Termin":6821,"Ġsocket":6822,"Ġsynchronized":6823,"aunch":6824,"Ġsymbol":6825,"ImplementedError":6826,"ua":6827,"Analytics":6828,"ĠWhether":6829,"Ġresolved":6830,"external":6831,"Ġintegration":6832,"Modify":6833,"utation":6834,"Parallel":6835,"refs":6836,"igit":6837,"Mongo":6838,"ĠQ":6839,"getParent":6840,"Css":6841,"tp":6842,"CAP":6843,"Ġitself":6844,"ĠCloud":6845,"erred":6846,"strument":6847,"metastore":6848,"ĠMetaException":6849,"Received":6850,"scan":6851,"waitFor":6852,"Credential":6853,"ools":6854,"Balancer":6855,").__":6856,"caling":6857,"MAIN":6858,"Pub":6859,"Ġunion":6860,"Authentication":6861,"racket":6862,"Channels":6863,"iling":6864,"Ġ1024":6865,"selection":6866,"Refresh":6867,"Extract":6868,"Signature":6869,"ParameterValue":6870,"encoder":6871,"toLowerCase":6872,"OperationException":6873,"constants":6874,"Ġlonger":6875,"Devices":6876,"irflow":6877,"DA":6878,"StringUtils":6879,"Threshold":6880,"DEX":6881,"ius":6882,"origin":6883,"Switch":6884,"Ġversions":6885,"Ġwaiting":6886,"ABILITY":6887,"Ġbrowser":6888,"odb":6889,"cannot":6890,"ĠNe":6891,"Ġgu":6892,"ĠView":6893,"CUR":6894,"Ġarrays":6895,"simple":6896,"fz":6897,"beta":6898,"SSL":6899,"ĠUsed":6900,"RECT":6901,"sorted":6902,"ĠIllegalStateException":6903,"ii":6904,"clo":6905,"Ġouter":6906,"Deleted":6907,"Points":6908,"memberOf":6909,"cut":6910,"Ġ(%":6911,"ĠLock":6912,"Reason":6913,"('*":6914,"Ġtf":6915,"aller":6916,"oot":6917,"Disabled":6918,"ĠVirtual":6919,"rm":6920,"ĠThrowable":6921,"flix":6922,"Ġcatalog":6923,"Ġgen":6924,"izable":6925,"Ġregard":6926,"}{":6927,"Are":6928,"ĠPl":6929,"Changes":6930,"ĠGNU":6931,"touch":6932,"Unsupported":6933,"Ġconstruct":6934,"leport":6935,"Ġ'')":6936,"lodash":6937,"Priority":6938,"Configs":6939,"Sk":6940,"ĠConvert":6941,"ĠWrite":6942,"Cnt":6943,"NT":6944,"ĠMMMM":6945,"Ġ\"${":6946,"ĠonError":6947,"Ġsl":6948,"Ġpush":6949,"(\\":6950,"closed":6951,"ddl":6952,"BlockInfo":6953,"Family":6954,"Contents":6955,"STATUS":6956,":]":6957,"browser":6958,"lator":6959,"States":6960,"Mask":6961,"^\\/":6962,"EP":6963,"Ġbundle":6964,"ulo":6965,"({'":6966,"ResourceAttr":6967,"outil":6968,"andidate":6969,"Ġcharset":6970,"Ġsupports":6971,"IMP":6972,"uped":6973,"generated":6974,"'\",":6975,"Attachment":6976,"Ġindexes":6977,"Ġartifact":6978,"BUG":6979,"oted":6980,"currentTime":6981,"Windows":6982,"supports":6983,"testsql":6984,"flat":6985,"=\\\"":6986,"utc":6987,"Marker":6988,"Ġbid":6989,"Scalar":6990,"Ġunless":6991,"publish":6992,"Zero":6993,"Ġattr":6994,"Ġbackup":6995,"Ġkind":6996,"'/":6997,"CLO":6998,"quivalent":6999,"Permissions":7000,"LockedInodePath":7001,"ularity":7002,"Ġ`${":7003,"hide":7004,"You":7005,"assertRaises":7006,"GROUP":7007,"hint":7008,"TypeString":7009,"tn":7010,"Ġconditions":7011,"svc":7012,"Ġplugins":7013,"hello":7014,"aw":7015,"Alpha":7016,"lots":7017,"Ġrepresentation":7018,"restore":7019,"Ġsignature":7020,"ategorical":7021,"which":7022,"pull":7023,"levels":7024,"cern":7025,"ish":7026,"istog":7027,"ĠThere":7028,"ĠCode":7029,"ĠWindow":7030,"Ġrestart":7031,"Entities":7032,"Ġsuc":7033,"Username":7034,"Ġfully":7035,"olation":7036,"padding":7037,"Sink":7038,"+}":7039,"Ġindices":7040,"ĠVer":7041,"Ġstmt":7042,"Setup":7043,"Ġrpc":7044,"]\",":7045,"Force":7046,"escape":7047,"Cost":7048,"zy":7049,"Ġ(!$":7050,"tip":7051,"Operations":7052,"Sel":7053,"ai":7054,"attach":7055,"Ġtp":7056,"adline":7057,"-----":7058,"Ġhidden":7059,"oom":7060,"getState":7061,"Assignment":7062,"Under":7063,"Side":7064,"machine":7065,"Collector":7066,"Ġnumeric":7067,"ĠVolt":7068,"+\"":7069,"Multiple":7070,"Ġfilepath":7071,"FilePath":7072,"'<":7073,"ilar":7074,"unded":7075,"Ġti":7076,"TimeMs":7077,"ĠInitial":7078,"Help":7079,"aring":7080,"rouped":7081,"dro":7082,"1000":7083,"oltip":7084,"Replica":7085,"Ġredirect":7086,"ValueError":7087,"Privilege":7088,"Shared":7089,"Ġ\"_":7090,"Ġelem":7091,"ĠDataArray":7092,"58":7093,"SK":7094,"Atomic":7095,"hasNext":7096,"EVENT":7097,"ĠMetric":7098,"Mutex":7099,"newBuilder":7100,"ĠLOG":7101,"AW":7102,"ndarray":7103,"Ġpytest":7104,"Direction":7105,"uer":7106,"Basic":7107,"FIER":7108,"Unmarshal":7109,"96":7110,"Projection":7111,"ENCE":7112,"Ġlogs":7113,"THREAD":7114,"Logical":7115,"ERY":7116,"('#":7117,"TIVE":7118,"getInode":7119,"ReadOnly":7120,"illegal":7121,"dm":7122,"[]{\"":7123,"interop":7124,"ĠRow":7125,"Ġ60":7126,"jobs":7127,"Ġprepare":7128,"Ġdescriptor":7129,"destroy":7130,"peek":7131,"Subscriber":7132,"sca":7133,"Ġsel":7134,"illiseconds":7135,"ĠUFS":7136,"ev":7137,"ĠNetwork":7138,"Deep":7139,"Ġcredentials":7140,"entrySet":7141,"filepath":7142,"Compiler":7143,"EOF":7144,"Unt":7145,"ĠStatus":7146,"Providers":7147,"ctrine":7148,"Ġ?,":7149,"Hub":7150,"extensions":7151,"Ġterm":7152,"Ġusername":7153,"ĠInst":7154,"AlluxioURI":7155,"Supported":7156,"Persistence":7157,"Ġrepository":7158,"getDefault":7159,"Ġ/**":7160,"ĠSearch":7161,"([]*":7162,"rave":7163,"definition":7164,"ience":7165,"Ġ'$":7166,"rott":7167,"userId":7168,"MAP":7169,"EMPTY":7170,"PachClient":7171,"Ġaccum":7172,"prod":7173,"sd":7174,"Cast":7175,"Ġetc":7176,"jQuery":7177,"DNS":7178,"TestHelper":7179,"Ġthreads":7180,"Ġwrapper":7181,"Ġrespect":7182,"credentials":7183,"Make":7184,"Ġexecuted":7185,")],":7186,"SPACE":7187,"\"',":7188,"Ġsubscription":7189,"gres":7190,"Ġwritten":7191,"Ġsaved":7192,"IPv":7193,"ITER":7194,"Ġcla":7195,"Ġwriter":7196,"azurerm":7197,"thrift":7198,"Ġstructs":7199,"cel":7200,"commons":7201,"Edge":7202,"ignite":7203,"Jobs":7204,"ĠSimple":7205,"Named":7206,"Varchar":7207,"versions":7208,"Prepare":7209,"Ġhelp":7210,"adapter":7211,"Pol":7212,"Ġdownload":7213,"entities":7214,"ĠMax":7215,"decoder":7216,"74":7217,"urse":7218,"allen":7219,"Ġidentity":7220,"dummy":7221,"Examples":7222,"Ġexact":7223,"TOK":7224,"Ġ'@":7225,"Font":7226,"getChild":7227,"igrate":7228,"Ġscalar":7229,"ĠHost":7230,"etter":7231,":\\":7232,"Ġencode":7233,"PARE":7234,"Ġorigin":7235,"fieldName":7236,"warnings":7237,"alendar":7238,"ĠVar":7239,"Ġautomatically":7240,"ĠAg":7241,"Ġwatch":7242,"Ġ++":7243,"FileName":7244,"partitions":7245,"ĠComponent":7246,"Started":7247,"Ġexpand":7248,"ordered":7249,"orum":7250,"Ġsuccessfully":7251,"Safe":7252,"Ġregistry":7253,"interopRequire":7254,"journal":7255,"atis":7256,"Html":7257,"multiple":7258,"chart":7259,"ITE":7260,"Acl":7261,"Product":7262,"Added":7263,"norm":7264,"Ġword":7265,"ĠLocal":7266,"fixture":7267,"ravega":7268,"Ġutil":7269,"Pass":7270,"leting":7271,"Category":7272,"Ġeg":7273,"\"})":7274,"setState":7275,"rac":7276,"permission":7277,"TableInfo":7278,"WIT":7279,"Alert":7280,"Ġimmediately":7281,"Ġplatform":7282,"getProperty":7283,"Ġsk":7284,"ĠVAL":7285,"ĠGoogle":7286,"Generic":7287,"mitive":7288,"LM":7289,"Ġroll":7290,"dimension":7291,"Ġruns":7292,"Migration":7293,"([\"":7294,"Standard":7295,"](":7296,"TestCheckResourceAttr":7297,"Ġadding":7298,"ĠSec":7299,"Ġinvoke":7300,"ons":7301,"Topology":7302,"enterprise":7303,"utures":7304,"download":7305,"toggle":7306,"TLE":7307,"rome":7308,"picker":7309,"ĠPython":7310,"accum":7311,"Ġtick":7312,"unexpected":7313,"Ġrelationship":7314,"Ġledger":7315,"ParameterValueException":7316,"Ġtakes":7317,"ĠAd":7318,"Updated":7319,"allet":7320,"EDIT":7321,"arange":7322,"SERT":7323,"QueryRunner":7324,"Attach":7325,"Ġoutputs":7326,"SR":7327,"ĠThese":7328,"Ġexclude":7329,"enied":7330,"UST":7331,"ĠTransaction":7332,"Accessor":7333,"subnet":7334,"Ġimplemented":7335,"Ġ~":7336,"QUERY":7337,"Arrow":7338,"take":7339,"Ġnd":7340,"ĠExecution":7341,"edger":7342,"Ġlogic":7343,"Ġ\"<":7344,"ĠUnion":7345,"ĠWait":7346,"Ġisset":7347,"cording":7348,"stub":7349,"iness":7350,"(\"<":7351,"Ġembed":7352,"expand":7353,"Ġwon":7354,"ĠDAG":7355,"Ġnotification":7356,"ĠNOTE":7357,"BYTES":7358,"PR":7359,"Ġgeneric":7360,"syn":7361,"containsKey":7362,"bootstrap":7363,"Ġable":7364,"igr":7365,"')).":7366,"MESSAGE":7367,"battery":7368,"Beta":7369,"planner":7370,"ĠAnd":7371,"Ġstates":7372,"Ġstrconv":7373,"Ġfix":7374,"itespace":7375,"inject":7376,"Ġvirtual":7377,"normalize":7378,"Callable":7379,"Ġincrement":7380,"RED":7381,"Collectors":7382,"Ġactions":7383,"duction":7384,"Digest":7385,"Ġvector":7386,"two":7387,"matcher":7388,"Ġfamily":7389,"startsWith":7390,"Ġtraining":7391,"Ġhig":7392,"connected":7393,"Native":7394,"FIN":7395,"\\\",":7396,"Ġclick":7397,"Origin":7398,"Ġedge":7399,"onoff":7400,"ORTED":7401,"sent":7402,"Sm":7403,"Sources":7404,"raction":7405,"Ġfont":7406,"Ġreplay":7407,".')":7408,"NULL":7409,"partial":7410,"Codec":7411,"auge":7412,"unchecked":7413,"Ġproduct":7414,"align":7415,"lin":7416,"Cho":7417,"finally":7418,"jet":7419,"Redirect":7420,"erra":7421,"WebKit":7422,"9999":7423,"inodePath":7424,"Ġchecking":7425,"istogram":7426,"vault":7427,"509":7428,"ĠĠĠĠĠĠĠĠĠĠĠĠĠĠĠĠĠĠ":7429,"Ġchannels":7430,"Ġsection":7431,"ĠConnect":7432,"factor":7433,"Ġconstants":7434,"Times":7435,"Person":7436,"abstract":7437,"Ġtheme":7438,"vas":7439,"ubit":7440,"DataArray":7441,"coord":7442,"ertificates":7443,"ĠBack":7444,"Ġdownstream":7445,"audit":7446,"alert":7447,"allenge":7448,"Logs":7449,"lite":7450,"FAIL":7451,"literal":7452,"RESOURCE":7453,"dn":7454,"Ġ{}\".":7455,"usters":7456,"ĠMem":7457,"Ġplease":7458,"07":7459,"`):":7460,"ĠProject":7461,"stage":7462,"Transition":7463,"annotations":7464,"Strict":7465,"inline":7466,"SING":7467,"rees":7468,"Ġreturning":7469,"video":7470,"ĠON":7471,"cleanup":7472,"Ġcpu":7473,"Ġproperly":7474,"etic":7475,"AV":7476,"asnumpy":7477,"Ġtz":7478,"evaluate":7479,"Ġdims":7480,"Ġps":7481,"ĠFilter":7482,"uggest":7483,"requency":7484,"ĠCan":7485,"echo":7486,"ĠCo":7487,"Ġrefresh":7488,"contract":7489,"Ġfeatures":7490,"kn":7491,"upper":7492,"JS":7493,"?,":7494,"Ġloading":7495,"gate":7496,"referred":7497,"ommunity":7498,"getF":7499,"Score":7500,"Restore":7501,"Codes":7502,"recogn":7503,"erraform":7504,"backup":7505,"Charm":7506,"FER":7507,"Ġthrown":7508,"attentions":7509,"ELD":7510,"venance":7511,"Payment":7512,"OIN":7513,"Dto":7514,"quant":7515,"price":7516,"`);":7517,"OC":7518,"Ġeffect":7519,"hand":7520,"atile":7521,"Ġsig":7522,"Ġpython":7523,"INVALID":7524,"Ġnone":7525,"Clear":7526,"kw":7527,"depth":7528,"Ġresolution":7529,"interopRequireDefault":7530,"Ġpo":7531,"elong":7532,"nost":7533,"Ġstructure":7534,"}'.":7535,"ĠInvalidParameterValueException":7536,"Card":7537,"Dynamic":7538,"*}":7539,"Ġcommands":7540,"89":7541,"lank":7542,"Delta":7543,"ĠProcess":7544,"Ġanaly":7545,"isDebug":7546,"Mouse":7547,"slf":7548,"ĠSource":7549,"Balance":7550,"ĠStore":7551,"Ġeslint":7552,"licit":7553,"Ġclause":7554,"Ġnested":7555,"Ġpoints":7556,"GC":7557,"mouse":7558,"green":7559,"Ġsuccessful":7560,"TRAN":7561,"pout":7562,"deploy":7563,"Ġreply":7564,"Ġpull":7565,"Ġtrying":7566,"Restart":7567,"Mozilla":7568,"PRI":7569,"Pull":7570,"[^":7571,"Ġcontribut":7572,"onym":7573,"ĠNotImplementedError":7574,"Ġhistory":7575,"Wiki":7576,"ĠEnsure":7577,"ĠInternal":7578,"ENV":7579,"Ġspan":7580,"ĠInstance":7581,"Datetime":7582,"Ġscroll":7583,"65":7584,"RUnlock":7585,"dbName":7586,"Ġincluding":7587,"ĠPARTI":7588,"JavaScript":7589,"ĠSession":7590,"Ġattrs":7591,"Ġlease":7592,"Launch":7593,"modified":7594,"Ġnormalize":7595,"Word":7596,"oriz":7597,"neo":7598,"Ġlogical":7599,"Ġminimum":7600,"ĠHandle":7601,"ĠFlux":7602,"Dump":7603,"TRY":7604,"Ġmade":7605,"Ġreduce":7606,"IgnoreCase":7607,"Alice":7608,"Patch":7609,"indent":7610,"ffff":7611,"47":7612,"Example":7613,"customer":7614,"Nic":7615,"Ġ{})":7616,"findById":7617,"Filters":7618,"Ġunits":7619,"Ġworking":7620,"pires":7621,"Ġencoded":7622,"prob":7623,"Ġpk":7624,"(\"\",":7625,"currentTimeMillis":7626,"Ġconsole":7627,"mon":7628,"Pop":7629,"oog":7630,"Dimensions":7631,"Ġfinished":7632,"Resolution":7633,"getStatusCode":7634,"toZigbee":7635,"Ġclone":7636,"ĠCount":7637,"getUri":7638,"Ġ'{":7639,"aking":7640,"Resolve":7641,"Ġmembers":7642,"ji":7643,"Have":7644,"epoch":7645,"Ġterms":7646,"hooks":7647,"ĠgetB":7648,"reat":7649,"Bootstrap":7650,"comb":7651,"DEBUG":7652,"rus":7653,"TITLE":7654,"Transfer":7655,"Ġbad":7656,"ĠQu":7657,"Ġsix":7658,"Major":7659,"Subscribe":7660,"Ġ'*":7661,"HttpResponse":7662,"Section":7663,"Ġ[[":7664,"jpg":7665,"Ġgetattr":7666,"ipient":7667,"Emit":7668,"Ġdesired":7669,"ĠStop":7670,"heet":7671,"omb":7672,"cf":7673,"Ġconnections":7674,"lave":7675,"Ġchecked":7676,"elements":7677,"Ġleader":7678,"Ġpartial":7679,"resolved":7680,"Exact":7681,"ĠInter":7682,"Ġgrant":7683,"PROPERTY":7684,"eat":7685,"ropri":7686,"Ġ18":7687,"quired":7688,"ante":7689,"Ġlibr":7690,"Distribution":7691,"Ġ'../":7692,"Ġdocuments":7693,"getNode":7694,"jda":7695,"iam":7696,"WithTimeout":7697,"Picker":7698,"Ġusage":7699,"shake":7700,"Ġpla":7701,"stringify":7702,"influx":7703,"ropriate":7704,"scalar":7705,"Stage":7706,"Ġregex":7707,"Ġseq":7708,"Inline":7709,"ĠAlso":7710,"oto":7711,"ULAR":7712,"UMN":7713,"ĠPO":7714,"Ops":7715,"Subscription":7716,"Ġpropag":7717,"Cleanup":7718,"Cookies":7719,"isDebugEnabled":7720,"Ġunknown":7721,"LC":7722,"members":7723,"ROOT":7724,"dashboard":7725,"ĠShould":7726,"launch":7727,"ife":7728,"127":7729,"ExecutorService":7730,"Ġcirq":7731,"ĠUtil":7732,"Ġcb":7733,"Completion":7734,"(%":7735,"OPEN":7736,"angle":7737,"Encoder":7738,"samples":7739,"Bl":7740,"tools":7741,"Ġlow":7742,"Ġreferences":7743,"Latest":7744,"RLock":7745,"Ġprocessed":7746,"Ġqueries":7747,"pravega":7748,"aybe":7749,"asy":7750,"dependencies":7751,"ErrorIsNil":7752,"Matches":7753,"prometheus":7754,"Math":7755,"orout":7756,"ouch":7757,"Compose":7758,"arrow":7759,"Ġtransport":7760,"suite":7761,"reflect":7762,"Ġreporting":7763,"health":7764,"ClassLoader":7765,"monitor":7766,"dings":7767,"ierarch":7768,"udson":7769,"Live":7770,"Ġunderlying":7771,"BuiltinFunc":7772,"ByteBuffer":7773,"includes":7774,"Sample":7775,"Ġsomething":7776,"+//":7777,"ĠAct":7778,"astic":7779,"ĠResult":7780,"Slot":7781,"Ġeq":7782,"serve":7783,"Ġcorrectly":7784,"views":7785,"secure":7786,"dAtA":7787,"fromZigbee":7788,"Ġnumbers":7789,"inispan":7790,"idi":7791,"Ġbroadcast":7792,"erce":7793,"ĠCluster":7794,"Cookie":7795,"Dispatcher":7796,"ĠHTL":7797,"Ġacc":7798,"ILED":7799,"amaz":7800,"Ġhostname":7801,"pressions":7802,"Protos":7803,"Throw":7804,"ĠForm":7805,"Lat":7806,"OO":7807,"Xml":7808,"oper":7809,"Ġtransactions":7810,"FileBuilder":7811,"viction":7812,"signature":7813,"(',":7814,"Move":7815,"Ġdiv":7816,"ora":7817,"Ġdecode":7818,"ĠRed":7819,"Ġear":7820,">.":7821,"Deploy":7822,"ĠNaN":7823,"}\\":7824,"(\",":7825,"hh":7826,"LT":7827,"WI":7828,"getEndpoint":7829,"$.":7830,"Tbl":7831,"Ġcomponents":7832,"Loading":7833,"Stub":7834,"Ġownership":7835,"Ġ}),":7836,"More":7837,"ampler":7838,"ĠPattern":7839,"iNdEx":7840,"bf":7841,"Fee":7842,"/.":7843,"Ġnic":7844,"ĠHTLC":7845,"HIVE":7846,"Ġpanel":7847,"IME":7848,"Ġgenerator":7849,"It":7850,"jav":7851,"ĠPost":7852,"digest":7853,"Until":7854,"Linked":7855,"ixels":7856,"Ġfire":7857,"ENTS":7858,"SIG":7859,"wards":7860,"cos":7861,"methods":7862,"Ġ}}":7863,"Ġconnected":7864,"CLOSE":7865,"filePath":7866,"calendar":7867,"native":7868,"Ġalice":7869,"Ġ\\'":7870,"Fs":7871,"Ġexc":7872,"RESS":7873,"Ġpatch":7874,"Ġcat":7875,"DateFormat":7876,"::$":7877,"ĠImport":7878,"idual":7879,"agination":7880,"environ":7881,"operations":7882,"Har":7883,"ĠChar":7884,"icorp":7885,"onChange":7886,"Two":7887,"Ġschedule":7888,"encoded":7889,"crypted":7890,"Schedule":7891,"()]":7892,"ATA":7893,"Ġsrv":7894,"pipe":7895,"'ve":7896,"HS":7897,"Ġaddresses":7898,"WorkItem":7899,"Ġwrong":7900,"pn":7901,"Ġcc":7902,"Ġworks":7903,"Ġuuid":7904,"ĠTra":7905,"reshape":7906,"LEVE":7907,"Netflix":7908,"hashicorp":7909,"ams":7910,"ĠFileSystem":7911,"ensus":7912,"PARTI":7913,"unnel":7914,"cnt":7915,"__,":7916,"Ctrl":7917,"Ġaccording":7918,"amazon":7919,"ĠConnection":7920,"temperature":7921,"OutOf":7922,"Authority":7923,"ĠPAT":7924,"callable":7925,"TypeVarchar":7926,"Alter":7927,"SUB":7928,"validator":7929,"Using":7930,"MILLI":7931,"HashSet":7932,"Ġtemporary":7933,"basic":7934,"ObjectHelper":7935,"Dag":7936,"Bounds":7937,"Ġfilters":7938,"wg":7939,">'":7940,"Press":7941,"Ġwf":7942,"nested":7943,"}`,":7944,"ĠSpark":7945,"agick":7946,"crete":7947,"theme":7948,"ĠArg":7949,"Super":7950,"Ġlicenses":7951,"Invocation":7952,"tol":7953,"Ġln":7954,"Ġwoc":7955,"inheritDoc":7956,"panel":7957,"checkNotNull":7958,"ĠSem":7959,"NewTest":7960,"Ġinitialized":7961,"gif":7962,"Ġreading":7963,"ĠObservables":7964,"going":7965,">\"":7966,".%":7967,"Upper":7968,"ious":7969,"atisf":7970,"------":7971,"ĠInterruptedException":7972,"modin":7973,"$(":7974,"ssaging":7975,"Endpoints":7976,"ĠPage":7977,"Ġstandard":7978,"Old":7979,"Ġasset":7980,"Decode":7981,"Light":7982,"SCRI":7983,"Look":7984,"ixtures":7985,"DFS":7986,"Ġversionadded":7987,"compress":7988,"argo":7989,"Ġsvc":7990,"Executable":7991,"chunks":7992,"home":7993,"Concurrent":7994,"Finished":7995,"Recursive":7996,"olution":7997,"Video":7998,"broadcast":7999,"voltdb":8000,"REAM":8001,"Theme":8002,"Keeper":8003,"Ġjs":8004,"000000":8005,"Ġ-=":8006,"cilium":8007,"ASTNode":8008,"TIER":8009,"ordinal":8010,"Lines":8011,"Ġexplicitly":8012,"limiter":8013,"Disable":8014,"ever":8015,"Ġlogin":8016,"workers":8017,"Ġ```":8018,"Else":8019,"Ġconcurrent":8020,"DULE":8021,"matrix":8022,"ĠPlease":8023,"\"./":8024,"KV":8025,"Amt":8026,"ookeeper":8027,"Exceptions":8028,"[[":8029,"does":8030,"vite":8031,"Features":8032,"ĠHe":8033,":\",":8034,"Reply":8035,"TODO":8036,"Ġmis":8037,"({},":8038,"rawler":8039,"isAn":8040,")\"":8041,"Ġclosing":8042,"Ġrepresenting":8043,"verr":8044,"nowled":8045,"Ġready":8046,"rtype":8047,"getText":8048,"plits":8049,"dddd":8050,"Ġ{?":8051,"Ġdependency":8052,"Ġ({":8053,"Ġinline":8054,"ĠInode":8055,"/\"":8056,"Ġappe":8057,"Latch":8058,"TICE":8059,"ĠOperation":8060,"udf":8061,"udo":8062,"urable":8063,"Ġdelta":8064,"Ġ{*}":8065,"Ġpayment":8066,"olid":8067,"Ġtachyon":8068,"tandard":8069,"Ġappropriate":8070,"cko":8071,"ĠStringBuilder":8072,"derm":8073,"quent":8074,"nodeName":8075,"Destination":8076,"lb":8077,"contentType":8078,"Material":8079,"une":8080,"TW":8081,"kubernetes":8082,"encrypt":8083,"bucketName":8084,"Ġworkers":8085,"Increment":8086,"Docs":8087,"Ġvalu":8088,"Ġupgrade":8089,"}:":8090,"43":8091,"VIEW":8092,")|":8093,"replica":8094,"repeat":8095,"Principal":8096,"Hour":8097,"endant":8098,"FC":8099,"rank":8100,"Allocator":8101,"Ġabsolute":8102,"VB":8103,"ĠSQLException":8104,"ĠContent":8105,"permissions":8106,"Versions":8107,"Ġms":8108,"nio":8109,"MT":8110,"Ġinvoked":8111,"JOB":8112,"Ġrand":8113,"anguages":8114,"`;":8115,"2016":8116,"rot":8117,"`.`":8118,"Ġ\"\";":8119,"Ġreflect":8120,"57":8121,"Ġ';":8122,"Servers":8123,"arante":8124,"Ġcols":8125,"training":8126,"dep":8127,"\")))":8128,"izations":8129,"Dropdown":8130,"CONTEXT":8131,"infinispan":8132,"shell":8133,"Ġpairs":8134,"Threads":8135,"icip":8136,"Ġarr":8137,"UFS":8138,"Construct":8139,"ĠĠĠĠĠĠĠĠĠĠĠĠĠĠĠĠĠĠĠĠ":8140,"illisecond":8141,"STAMP":8142,"Ġcommitment":8143,"Brand":8144,"Ġvari":8145,"Ġreplica":8146,"ĠBig":8147,"ObjectException":8148,"zA":8149,"Ġpadding":8150,"Like":8151,"\")).":8152,"locked":8153,"UNK":8154,"Concurrency":8155,"infer":8156,"ĠDouble":8157,"aliases":8158,"reds":8159,"Rot":8160,"car":8161,"Character":8162,"verbose":8163,"Ġstatistics":8164,"Minor":8165,"ikv":8166,"codes":8167,"ROW":8168,"Roll":8169,"live":8170,"ĠBuffer":8171,"Ġatomic":8172,"Ġservers":8173,"topic":8174,"ĠAttribute":8175,"vanced":8176,"boss":8177,"singleton":8178,"Compile":8179,"CpuPower":8180,"camp":8181,"Pages":8182,"Ġindent":8183,"ORM":8184,"expects":8185,"Criteria":8186,"toArray":8187,"mf":8188,"perimental":8189,"Ġder":8190,"Ġ\");":8191,"Ġduplicate":8192,"Whether":8193,"special":8194,"rypto":8195,"qa":8196,"Ġgreater":8197,"pay":8198,"etri":8199,"tention":8200,"iteration":8201,"roker":8202,"Ġcloud":8203,"SERVICE":8204,"Ġicon":8205,"isSet":8206,"terraform":8207,"LD":8208,"mostat":8209,"ĠSo":8210,"Ġsuffix":8211,"thetic":8212,"course":8213,"steps":8214,"Flux":8215,"Discovery":8216,"Defined":8217,"iform":8218,"FFER":8219,"Indices":8220,"assets":8221,"ARG":8222,"Hidden":8223,"Ġdistribution":8224,"Absolute":8225,"alice":8226,"background":8227,"threshold":8228,"Ġ')":8229,"VID":8230,"ARRAY":8231,"descri":8232,"Ġrespon":8233,"Ġhigh":8234,"locks":8235,"rev":8236,"Ġ],":8237,"rackets":8238,"Ġcounter":8239,"rapp":8240,"Controls":8241,"Ġparsing":8242,"Once":8243,"tw":8244,"Ġencounter":8245,"runt":8246,"imate":8247,"FAILURE":8248,"ForTesting":8249,"Ġ[%":8250,"Ġhandling":8251,"Priv":8252,"Ġupper":8253,"getAll":8254,"Sound":8255,"Final":8256,"maybe":8257,"Ġoperand":8258,"AIL":8259,"sprintf":8260,"NING":8261,"Inner":8262,"corator":8263,"Lease":8264,"Ġdeploy":8265,"Ġattach":8266,"termin":8267,"Ġwhose":8268,"accessible":8269,"Ġ;":8270,"ExprNode":8271,"LIN":8272,"ared":8273,"Aggregate":8274,"ĠSchema":8275,"deleted":8276,"eslint":8277,"Specs":8278,"rollback":8279,"################################":8280,"Ġ00":8281,"Ġstarts":8282,"Encode":8283,"prox":8284,"edge":8285,"Ġoccurred":8286,"cwd":8287,"Ġlayout":8288,"manifest":8289,"VAR":8290,"ctxb":8291,"Ġ13":8292,"NewReader":8293,"ARD":8294,"Ġflatten":8295,"Cached":8296,"astype":8297,"snap":8298,"Ġcallable":8299,"Ġenter":8300,"si":8301,"dialog":8302,"Algorithm":8303,"Ġconsume":8304,"getB":8305,"UG":8306,"98":8307,"many":8308,"ĠMAX":8309,"Ġsyn":8310,"Containers":8311,"records":8312,"HEADER":8313,"ctest":8314,"ONG":8315,"gp":8316,"QUAL":8317,"thenReturn":8318,"timer":8319,"links":8320,"================================":8321,"255":8322,"Draw":8323,"ĠNOTICE":8324,"ales":8325,"tb":8326,"ildcard":8327,"isValid":8328,"Ġassigned":8329,"Ġauthentication":8330,"Indent":8331,"Ġaut":8332,"Hints":8333,"ĠPublish":8334,"XY":8335,"anit":8336,"68":8337,"Ġoffer":8338,"Ġrecursive":8339,"unused":8340,"eh":8341,"Ġ\"{":8342,"Ġ|=":8343,"lab":8344,"ĠMock":8345,"Src":8346,"Sorted":8347,"ĠMo":8348,"Processing":8349,"ĠCIM":8350,"Partial":8351,"ĠCurrent":8352,"Ġhtml":8353,"Ġentire":8354,"WR":8355,"Ġtimer":8356,"Ġdays":8357,"fullPath":8358,"']:":8359,"```":8360,"Sleep":8361,"aban":8362,"Ġmatched":8363,"Ġregarding":8364,"Ġ/^":8365,"gol":8366,"Ġscore":8367,"Queries":8368,"jvm":8369,"Ġperson":8370,"ĠNoSuch":8371,"want":8372,"getAttribute":8373,"sa":8374,"icates":8375,"Ġorig":8376,"Pointing":8377,"(\"\\\\":8378,"dataSource":8379,"Mac":8380,"AggregatorFactory":8381,"([[":8382,")},":8383,"DIRECT":8384,"zen":8385,"priority":8386,"Ġoccurs":8387,"ĠToken":8388,"Ġol":8389,".');":8390,"Ġsending":8391,"aled":8392,"iator":8393,"Preferences":8394,"Ġsec":8395,"Ġioutil":8396,"asing":8397,"Ġfake":8398,"Gu":8399,"ControlException":8400,"Encryption":8401,"ably":8402,"Ġ(!(":8403,"getTable":8404,"StmtCtx":8405,"HOD":8406,"Ġnegative":8407,"sonar":8408,"certificate":8409,"constraints":8410,"rb":8411,"Ġhandles":8412,"PutFile":8413,"lm":8414,"Ġep":8415,"traceurRuntime":8416,"Ġcm":8417,"Ġescape":8418,"identical":8419,"ells":8420,"poll":8421,"repos":8422,"ĠTensor":8423,"ral":8424,"Ġcompletes":8425,"feed":8426,";\")":8427,"reverse":8428,"alf":8429,"GTH":8430,"Ġmd":8431,"dtypes":8432,"era":8433,"hibernate":8434,"ĠChecks":8435,"INSERT":8436,"jax":8437,"Ġremaining":8438,"Other":8439,"TEGER":8440,"spring":8441,"Publisher":8442,"afari":8443,"Generated":8444,"olx":8445,"targets":8446,"osmos":8447,"Existing":8448,"nic":8449,"inned":8450,"ĠNow":8451,"YYYY":8452,"Nano":8453,"Ġcli":8454,"enchmark":8455,"Ġdevices":8456,"QueryRunnerTestHelper":8457,"ĠConcurrent":8458,"{}{}":8459,"Removed":8460,">\",":8461,"ja":8462,"ĠMethod":8463,"logrus":8464,"Ġfinish":8465,"ĠGrid":8466,"ResponseWriter":8467,"getPartition":8468,"Ġpm":8469,"Visitor":8470,"coordin":8471,"getT":8472,"Ġliteral":8473,"axon":8474,"Ġconverted":8475,"Decoder":8476,"DN":8477,"plus":8478,"ef":8479,"jboss":8480,"DIS":8481,"Ġlocked":8482,"ĠsiteId":8483,"ba":8484,"********************************":8485,"isModified":8486,"unset":8487,"LEVEL":8488,"ried":8489,"orted":8490,"Ġsessionctx":8491,"codec":8492,"Epoch":8493,"REMO":8494,"}(":8495,"Contact":8496,"ĠPermission":8497,"was":8498,"Ġfixed":8499,"onymized":8500,"PTION":8501,"69":8502,"ĠAzure":8503,"reply":8504,"ĠLinked":8505,"Ledger":8506,"PropertyKey":8507,"Ġvisible":8508,"yperHost":8509,"Ġ.=":8510,"dication":8511,"unct":8512,"iving":8513,"isEqual":8514,"Ġmigration":8515,"ĠDS":8516,"]):":8517,"=',":8518,"Ġmodules":8519,"Ġcompletion":8520,"Ġregular":8521,"ĠsendBadge":8522,"Ġbest":8523,"ĠXXX":8524,"\":{\"":8525,"href":8526,"Rect":8527,"mas":8528,"ĠIgnite":8529,"ĠUnsupported":8530,"Filename":8531,"Include":8532,"completed":8533,"mong":8534,"ĠOperator":8535,"idiem":8536,"isSyn":8537,"Ġelseif":8538,"Compat":8539,"Ġbin":8540,"Checks":8541,"Ġcompile":8542,"Ġlibrary":8543,"Ġ%#":8544,"Archive":8545,"MODULE":8546,"ĠIDs":8547,"ĠVerify":8548,"Ġlisteners":8549,"posts":8550,"ĠValidate":8551,"Aws":8552,"inity":8553,"Fac":8554,"ermark":8555,"ipv":8556,")->":8557,"BASE":8558,"resolver":8559,"PointerException":8560,"ĠRO":8561,"best":8562,"direction":8563,"Formatter":8564,"ubits":8565,"sembly":8566,"ancell":8567,"Ġcoordinates":8568,"Manifest":8569,"Ġ----------------------------------------------------------------":8570,"specified":8571,"igits":8572,"getContent":8573,"getColumn":8574,"Ġanything":8575,"Nonnull":8576,"Ġdec":8577,"Ġ24":8578,"QUO":8579,"Ġagree":8580,"SUP":8581,"priv":8582,"NotExists":8583,"ĠMy":8584,"cookie":8585,"times":8586,"Ġsegments":8587,"ĠHel":8588,"xn":8589,"Ġgrad":8590,"LENGTH":8591,"Ġss":8592,"Topic":8593,"WithResponse":8594,"Reporting":8595,"ĠSince":8596,"Daemon":8597,"SSH":8598,"ErrorCode":8599,"Ġinstalled":8600,"Ġhon":8601,"Scheduled":8602,"Ġlisten":8603,"requires":8604,"500":8605,"Ġpoly":8606,"SocketAddress":8607,"atermark":8608,"ĠPar":8609,")-":8610,"ipt":8611,"Receive":8612,"VisibleForTesting":8613,"Evalu":8614,"ĠRel":8615,"rf":8616,"ĠEntity":8617,"microsoft":8618,"mapper":8619,"Kie":8620,"``,":8621,"Ġwarnings":8622,"vnd":8623,"conc":8624,"__.":8625,"INDEX":8626,"ĠContainer":8627,"managed":8628,"isFake":8629,"Clone":8630,"ĠUNDERFS":8631,"PROJECT":8632,"wt":8633,"ĠAt":8634,"Ġlive":8635,"dates":8636,"Modus":8637,"FORMAT":8638,"Indexes":8639,"precation":8640,"orizont":8641,"Bitmap":8642,"ILD":8643,"JavaApp":8644,"Ġndarray":8645,"getInt":8646,"DR":8647,"Room":8648,"Compare":8649,"Ġordered":8650,"(\".":8651,"riction":8652,"THREADS":8653,"Ġ\";":8654,"parametri":8655,"analytics":8656,"gradle":8657,"5678":8658,"cont":8659,"AsyncClient":8660,"duced":8661,"reserve":8662,"VBScript":8663,"IFrames":8664,"CssVersion":8665,"isAnonymized":8666,"JavaApplets":8667,"dicationReader":8668,"isSyndicationReader":8669,"jo":8670,"ĠMin":8671,"52":8672,"Ġoutside":8673,"Ġinstanti":8674,"Dot":8675,"orig":8676,"Ġspark":8677,"equalsIgnoreCase":8678,"getVersion":8679,"getIdentifier":8680,"Management":8681,"67":8682,"Loaded":8683,"wb":8684,"ttl":8685,"FIELD":8686,">\\":8687,"Ġconstraints":8688,"VED":8689,"ĠSelect":8690,"Ġwrapped":8691,"Called":8692,"world":8693,"Optim":8694,"tcp":8695,"CONTAIN":8696,"Where":8697,"aven":8698,"ĠBe":8699,"Ġclients":8700,"Ġiteration":8701,"without":8702,"kafka":8703,"CID":8704,"Reserved":8705,"Ġnotify":8706,"Ġtransfer":8707,"([^":8708,"Ġhasattr":8709,"bes":8710,"Ġmakes":8711,"ĠMetadata":8712,"ymbolic":8713,"elist":8714,"Tachyon":8715,"Ġbuilt":8716,"ereum":8717,"Ġtb":8718,"ripe":8719,"Ġrendered":8720,"Ġtopic":8721,"Ġfragment":8722,"Ġmanifest":8723,"ushed":8724,"Ġ\"[":8725,"Ġhandled":8726,"scheme":8727,"high":8728,"ĠCLI":8729,"mand":8730,"front":8731,"ĠAss":8732,"ĠWith":8733,"Ġstdout":8734,"Wrong":8735,"Ġbus":8736,"Ġalign":8737,"dropdown":8738,"Ġpublished":8739,"ĠExpression":8740,"sender":8741,"Ġpersisted":8742,"Ġdestroy":8743,"Ġwidget":8744,"ĠWindows":8745,"inplace":8746,"enticated":8747,"uncated":8748,"Ġdev":8749,"ĠNext":8750,"Ġdecimal":8751,"fit":8752,"Depth":8753,"Tmp":8754,"Ġclosure":8755,"MenuItem":8756,"FR":8757,"parametrize":8758,"iddleware":8759,"NoSuch":8760,"Ġmonitor":8761,"}>":8762,"Original":8763,"ĠTO":8764,"weights":8765,"Ġinspect":8766,"ybox":8767,"Into":8768,"Gate":8769,"ranches":8770,"ĠUI":8771,"Ġenumerate":8772,"Ġcell":8773,"Ġrouter":8774,"Runnable":8775,"TC":8776,"Keep":8777,"loading":8778,"hy":8779,"orac":8780,"PS":8781,"POSE":8782,"postgres":8783,"DOWN":8784,"Ġlib":8785,"createDataFrame":8786,"aming":8787,"Backoff":8788,"Cake":8789,"Ġpods":8790,"goog":8791,"Relative":8792,"freq":8793,"ObjMethod":8794,"Defaults":8795,"pdf":8796,"Ġseparate":8797,"ĠVariable":8798,"Creation":8799,"Ap":8800,"Fire":8801,"ORS":8802,"styles":8803,"ĠFirst":8804,"share":8805,"Ġexpressions":8806,"program":8807,"Ġtopology":8808,"azelcast":8809,"ippet":8810,"Ġ\"#":8811,"OLDER":8812,"MEDI":8813,"POINT":8814,"NaN":8815,"41":8816,"edora":8817,"Distance":8818,"={'":8819,"Ġupstream":8820,"Ġadds":8821,"Ġpriority":8822,"Rename":8823,"Deferred":8824,"OFTW":8825,"OFTWARE":8826,"amma":8827,"Interceptor":8828,"Ġstderr":8829,"Bid":8830,"intain":8831,")])":8832,"assertSame":8833,"SIST":8834,"gu":8835,"Ġgl":8836,"Ġvars":8837,"\":[":8838,"panic":8839,"inate":8840,"Ġvolatile":8841,"\")));":8842,"getH":8843,"getTime":8844,"Ġgrpc":8845,"Ġgetting":8846,"Ġec":8847,"vector":8848,"NON":8849,"ascript":8850,"Ġfi":8851,"matched":8852,"GHT":8853,"MON":8854,"lices":8855,"glob":8856,"packages":8857,"Free":8858,"Ġbob":8859,"'\\":8860,"\"--":8861,"accounts":8862,"ĠPartition":8863,"ĠtoString":8864,"Ġ[])":8865,"assoc":8866,"mesg":8867,"ĠRunnable":8868,"ips":8869,"::__":8870,"Ġgran":8871,"material":8872,"FORCE":8873,"Too":8874,"Activ":8875,"ĠGecko":8876,"PRESSION":8877,"workspace":8878,"Ġenough":8879,"Ġrate":8880,"Numeric":8881,"references":8882,"Ġrev":8883,"ĠSend":8884,"circuit":8885,"zeros":8886,"ĠSH":8887,"getField":8888,"aves":8889,"ĠUUID":8890,"Apple":8891,"Ġ(`":8892,"TEMP":8893,"Policies":8894,"containers":8895,"Ġconstant":8896,"Ġfocus":8897,"lems":8898,"Ġpot":8899,"______":8900,"deps":8901,",)":8902,"rick":8903,")$/,":8904,"watcher":8905,"ĠHas":8906,"FAILED":8907,"Ġyield":8908,"LOCAL":8909,"oost":8910,"MountTable":8911,"({\"":8912,"eZ":8913,"Ġ\":":8914,"serialized":8915,"METHOD":8916,"DataException":8917,"Ġbinding":8918,"ĠGenerate":8919,"transition":8920,"scape":8921,"Ġer":8922,"Crawler":8923,"PARAM":8924,"'][$":8925,"ttm":8926,"saved":8927,"nms":8928,"SV":8929,"Ġreverse":8930,"iagnost":8931,"Ġnotice":8932,"Ġbuiltin":8933,"ĠfileId":8934,"STREAM":8935,"ĠSELECT":8936,"Emitter":8937,"Ġ(?,":8938,"(/^\\/":8939,"Outer":8940,"Styles":8941,"Hostname":8942,"Ġprotected":8943,"NEL":8944,"NOWN":8945,"mult":8946,"usage":8947,"Ġseed":8948,"ĠtblName":8949,"inder":8950,"statistics":8951,"Ġ\"/\"":8952,"slug":8953,"Fixed":8954,"getRequest":8955,"BUFFER":8956,"Heartbeat":8957,"clared":8958,"Ġaudit":8959,"Notify":8960,"ĠAuto":8961,"ĠSOFTWARE":8962,"activity":8963,"serverless":8964,"Comparator":8965,"Ġstores":8966,"Ġbecome":8967,"Ġaround":8968,"Ġequivalent":8969,"roken":8970,"MIT":8971,"Ġdt":8972,"Ġpys":8973,"Upgrade":8974,"getTree":8975,"Generate":8976,"Ġannotation":8977,"ĠTH":8978,"Definitions":8979,"icator":8980,"HH":8981,"Ġdatasource":8982,"crease":8983,"Hosts":8984,"Ġlight":8985,"nc":8986,"Ġpreviously":8987,"Annotations":8988,"expanded":8989,"Writable":8990,"PES":8991,"getFirst":8992,"zon":8993,"?(":8994,"Ġprotobuf":8995,"ĠDon":8996,"ĠSerial":8997,"ĠSSL":8998,"payment":8999,"Rad":9000,"agic":9001,"ĠNet":9002,"ĠgetState":9003,"Ġmapped":9004,"Alive":9005,"Mappings":9006,"spe":9007,"dimensions":9008,"Ġdirectories":9009,"small":9010,"Console":9011,"Ġacross":9012,"nonce":9013,"Prepared":9014,"bert":9015,"nowledge":9016,"ĠIterator":9017,"Ġ':":9018,"Stopped":9019,"Ġ'/'":9020,"Heap":9021,"Retention":9022,"Compaction":9023,"SecurityException":9024,"Ġpid":9025,"Ġrot":9026,"Area":9027,"ĠScope":9028,"Ġcompatibility":9029,"Ġplot":9030,"pages":9031,"ĠAddress":9032,"Ġfall":9033,"Ġhudson":9034,"Ġconflict":9035,"union":9036,"Ġlarge":9037,"Mixin":9038,"ipher":9039,"Connected":9040,"Attempt":9041,"Ġvi":9042,"ĠCH":9043,"phere":9044,"Forward":9045,">;":9046,"Ġactor":9047,"note":9048,"perform":9049,"Did":9050,"ĠgetBadgeData":9051,"Visibility":9052,"elem":9053,"Foreign":9054,"ffinity":9055,"Ġmanaged":9056,"Ġtm":9057,"`:":9058,"sid":9059,"Ġcapacity":9060,"Ġchunks":9061,"Git":9062,"Ġoverr":9063,"Ġreplication":9064,"acebook":9065,"ĠAccount":9066,"Ġbackground":9067,"blue":9068,"Ax":9069,"QUE":9070,"staticmethod":9071,"Ġbug":9072,"ptr":9073,"Ġprovides":9074,"iso":9075,"CPU":9076,"Ġpyspark":9077,"Ġpay":9078,"sser":9079,"defaultValue":9080,"lastic":9081,"arrays":9082,"Ġupdating":9083,"ASK":9084,"Ġcollections":9085,"Pause":9086,"Ġtyping":9087,"RM":9088,"Ack":9089,"}',":9090,"anging":9091,"orizontal":9092,"Ġ14":9093,"Ġsummary":9094,"Reflection":9095,"bigquery":9096,"clip":9097,"72":9098,"Ġsender":9099,"library":9100,"Ġ500":9101,"startswith":9102,"Ġhtlc":9103,"riggers":9104,"ĠSemantic":9105,"85":9106,"Clean":9107,"mous":9108,"itelist":9109,"OFF":9110,"variants":9111,"Ġscheme":9112,"mq":9113,"integration":9114,"Capabilities":9115,"ĠblockId":9116,"ĠAsync":9117,"\"\",":9118,"setting":9119,"][]":9120,"Concern":9121,"attachment":9122,"ris":9123,"Parallelism":9124,"Funcs":9125,"Exprs":9126,"TRANS":9127,"Vault":9128,"Ġshare":9129,"dec":9130,"ĠArrays":9131,"Ġvs":9132,"ĠDefaults":9133,"isPresent":9134,"Slug":9135,"Ġguarante":9136,"Ġ2013":9137,"Ġagg":9138,"PY":9139,"Bob":9140,"Ġcombine":9141,"Relationships":9142,"Ġsa":9143,"128":9144,"TIERED":9145,"Preview":9146,"onymous":9147,"authorized":9148,"IR":9149,"\\/(":9150,"'][":9151,"Ġdocs":9152,"OURNAL":9153,"Ġprior":9154,"ĠVALUES":9155,"serializer":9156,"velop":9157,"Ġaggregation":9158,"Ts":9159,"based":9160,"Ġfallback":9161,"ĠCSS":9162,"Ġturn":9163,"Vals":9164,"Ġinject":9165,"checksum":9166,"Ġdump":9167,"question":9168,"calls":9169,"SO":9170,"Ġregistration":9171,"ancy":9172,"patches":9173,"mission":9174,"ĠuserId":9175,"Ġorders":9176,"boot":9177,"Bindings":9178,"named":9179,"Ġsym":9180,"orth":9181,"gas":9182,"stree":9183,"Locations":9184,"Illegal":9185,"QueryBuilder":9186,"Workspace":9187,"Ġtransition":9188,"Ġbelong":9189,"ETPACK":9190,"ĠHow":9191,"yderm":9192,"pachyderm":9193,"uman":9194,"<?>>":9195,"WA":9196,"Ġpp":9197,"ĠMust":9198,"capacity":9199,"ĠSafari":9200,"getBlock":9201,"iser":9202,"Ġepoch":9203,"Ġthird":9204,"Ġcomputed":9205,"Ġbetter":9206,"OBJECT":9207,"Ġincludes":9208,"oroutine":9209,"mkdir":9210,"Ġcalculate":9211,"={\"":9212,"Ġcenter":9213,"esting":9214,"istr":9215,"PreCheck":9216,"veloper":9217,"Allocation":9218,"JOURNAL":9219,"Subnet":9220,"Ġbootstrap":9221,"decimal":9222,"Ġsyntax":9223,"ĠTIME":9224,"TX":9225,"Yaf":9226,"Percentage":9227,"pods":9228,"fragment":9229,"storm":9230,"ĠmInodeTree":9231,"Ġparallel":9232,"EQUAL":9233,"hr":9234,"Computed":9235,"Ġguild":9236,")/":9237,"family":9238,"stone":9239,"quare":9240,"oy":9241,"ĠMER":9242,"Ġquant":9243,"roles":9244,"olver":9245,"rozen":9246,"Ġ'*'":9247,"resence":9248,"('\\":9249,"Ġrelation":9250,"Attempts":9251,"THER":9252,"Quote":9253,"Inet":9254,"ĠTachyon":9255,"exe":9256,"ĠOptions":9257,"stand":9258,"[],":9259,"ern":9260,"sess":9261,"ĠTi":9262,"Offsets":9263,"Nested":9264,"Aut":9265,"UTE":9266,"Ġ$(":9267,"Ġinplace":9268,"iro":9269,"suffix":9270,"SHA":9271,"ipy":9272,"bc":9273,"Install":9274,"setName":9275,"finished":9276,"Ġrepeat":9277,"FILES":9278,"ĠSign":9279,"Logging":9280,"(*)":9281,"ĠMod":9282,"goto":9283,"Download":9284,"84":9285,"started":9286,"ĠNullPointerException":9287,"alformed":9288,"ĠIte":9289,"CIStr":9290,"Ġalgorithm":9291,"authentication":9292,"signal":9293,"WITH":9294,"Ġxml":9295,"cripts":9296,"Ġops":9297,"ndim":9298,"pot":9299,"covered":9300,"jar":9301,"Arn":9302,"more":9303,"additional":9304,"TimeUnit":9305,"Ġconsidered":9306,"[\\":9307,"getTask":9308,"ĠMongo":9309,"ExceptionMessage":9310,"Ġlogged":9311,"testutil":9312,"Ġinvariant":9313,"Ġhive":9314,"rive":9315,"Self":9316,"Dev":9317,"Ġdaemon":9318,"golang":9319,"Ġtensor":9320,"Geometry":9321,"Modules":9322,"SM":9323,"legation":9324,"LEAN":9325,"RETRY":9326,"sdk":9327,"ibly":9328,"Rollback":9329,"dap":9330,"redshift":9331,"Ġconcaten":9332,"Ġmatrix":9333,"ExistsException":9334,"Exchange":9335,"Lists":9336,"mazon":9337,"(\"-":9338,"logits":9339,"Getter":9340,"isNull":9341,"ĠDet":9342,"Ġtimezone":9343,"Analyze":9344,"toList":9345,"addresses":9346,"ĠOTHER":9347,"kie":9348,"ColumnName":9349,"]|":9350,"stit":9351,"FileStatus":9352,"ierarchy":9353,"Frontend":9354,"dif":9355,"ĠHH":9356,"StatusCode":9357,"TypeError":9358,"Persisted":9359,"SHO":9360,"subscription":9361,"listen":9362,"\"/":9363,"keySet":9364,"NESS":9365,"Vari":9366,"Ġbox":9367,"Structure":9368,"Ġsimp":9369,"ĠApple":9370,"Ġcoords":9371,"downloads":9372,"onError":9373,"Harness":9374,"REE":9375,"ĠAllow":9376,"ĠbufferSize":9377,"Ġ(\\":9378,"roke":9379,"rash":9380,"FUN":9381,"ulp":9382,"Hex":9383,"]])":9384,"ĠOutput":9385,"')),":9386,"todo":9387,"enticate":9388,"ĠAndroid":9389,"Ġlaunch":9390,"ĠJS":9391,".\\":9392,"STEM":9393,"Ġxr":9394,"73":9395,"Sys":9396,"DataType":9397,"?|":9398,"Ġranges":9399,"Ġnan":9400,"getObject":9401,"ĠACL":9402,"ĠImmutableList":9403,"ĠCL":9404,"instruction":9405,"Ġtestkit":9406,"margin":9407,"Ġexceptions":9408,"getClient":9409,"DOMAIN":9410,"Ġscreen":9411,"ĠId":9412,"Ġperformance":9413,"izers":9414,"Ġgoogle":9415,"Links":9416,"].[":9417,"asc":9418,"fixtures":9419,"ancestor":9420,"ATCH":9421,"charAt":9422,"Than":9423,"~~~~":9424,"Ġstage":9425,"kube":9426,"replication":9427,"ocused":9428,"ctypes":9429,"Extensions":9430,"\"\\":9431,"Funding":9432,"ĠIO":9433,"Ġencountered":9434,"counts":9435,"63":9436,"Ġstopped":9437,"Pa":9438,"providers":9439,"ĠCloseable":9440,"Ġ%+":9441,"ĠDateTime":9442,"Ġindiv":9443,"ampling":9444,"ĠĠĠĠĠĠĠĠĠĠĠĠĠĠĠĠĠĠĠĠĠĠĠĠĠĠĠ":9445,"ĠTry":9446,"thermostat":9447,"Ġmat":9448,"extends":9449,"reindex":9450,"chemas":9451,"Steps":9452,"WAL":9453,"Compact":9454,"isMobile":9455,"Ġrather":9456,"WORDS":9457,"TypeLong":9458,"NewTestKit":9459,"Duplicate":9460,"detail":9461,"Distinct":9462,"Screen":9463,"vided":9464,"[:,":9465,"ORDER":9466,"Millisecond":9467,"logError":9468,"Ġ'--":9469,"relationship":9470,"zkaban":9471,"Ġaxes":9472,"andbox":9473,"locator":9474,"92":9475,"ĠFuture":9476,"startDate":9477,"trip":9478,"partner":9479,"Ġdistinct":9480,"lacklist":9481,"Ssl":9482,"elastic":9483,"ĠBo":9484,"Circuit":9485,"ĠFree":9486,"Ġreplaced":9487,"Ġ{});":9488,"templates":9489,"isters":9490,"Minute":9491,"Tokenizer":9492,"001":9493,"XXX":9494,"Oper":9495,"Share":9496,"Fix":9497,"anic":9498,"getResource":9499,"Ġarch":9500,"Ġpages":9501,"Pred":9502,"51":9503,"ĠGH":9504,"ĠPUR":9505,"rivileges":9506,"CLU":9507,"=[\"":9508,"=_":9509,"Ġcontributor":9510,"INGS":9511,"etc":9512,"Cores":9513,"Ġhealth":9514,"ĠRout":9515,"LICATION":9516,"errupted":9517,"ilation":9518,"TYPES":9519,"ĠTests":9520,"{$":9521,"Measurement":9522,"charset":9523,"Ġdynamic":9524,"WriteString":9525,"unicode":9526,"Ġproc":9527,"rendered":9528,"Ġlists":9529,"Ġimg":9530,"ĠApplication":9531,"ĠBSD":9532,"assertNull":9533,"rier":9534,"Quant":9535,"NumberOf":9536,"Ptr":9537,"Ġpat":9538,"amera":9539,"ade":9540,"Ġhigher":9541,"Ġns":9542,"Absent":9543,"StringBuilder":9544,"VoltDB":9545,"Ġpassing":9546,"Updater":9547,"Ġmapper":9548,"Inc":9549,"Ġlicensed":9550,"RS":9551,"Ġpad":9552,"Ġdirection":9553,"turn":9554,"ĠRegister":9555,"Lifecycle":9556,"secondary":9557,"Cause":9558,"Ġnoqa":9559,"ĠIE":9560,"ĠSegment":9561,"Ġ?)',":9562,"ĠĠĠĠĠĠĠĠĠĠĠĠĠĠĠĠĠĠĠĠĠ":9563,"Ġthree":9564,"00000":9565,"Ġbalance":9566,"Qualified":9567,"ĠRay":9568,"Ġdidn":9569,"QUOTE":9570,"Ġrunner":9571,"ĠCustom":9572,"Calendar":9573,"dags":9574,"windows":9575,"ACCESS":9576,"Datastore":9577,"ranges":9578,"idr":9579,"Breakpoint":9580,"Ġ$.":9581,"ReturnValue":9582,"Ġhl":9583,"PARTITION":9584,"Home":9585,"Ġcombin":9586,"Fast":9587,"Customer":9588,"Denied":9589,"Ġ\"\\\\":9590,"Ġairflow":9591,"Persistent":9592,"clients":9593,"Ġvery":9594,"ĠPRE":9595,"maker":9596,"Ġactiv":9597,"ĠDescri":9598,"stable":9599,"CULAR":9600,"Sounds":9601,"Modal":9602,"osh":9603,"Ignite":9604,"ĠRule":9605,"diag":9606,"pacing":9607,"dbc":9608,"Ġrecent":9609,"getLong":9610,"Mysql":9611,"Scanner":9612,"('../":9613,"rottle":9614,"Ġmac":9615,"Need":9616,"('<":9617,"ĠAR":9618,"refetch":9619,"Buckets":9620,"Ġadjust":9621,"velopment":9622,"Ġapplies":9623,"messageInfo":9624,"ĠDO":9625,"irmed":9626,"serialization":9627,"opennms":9628,"ĠSemanticException":9629,"CATION":9630,"Ġfactor":9631,"ctrl":9632,"separator":9633,"legacy":9634,"inaccessible":9635,"Ġcategory":9636,"Quota":9637,"Mer":9638,"(\"#":9639,"Elem":9640,"indexers":9641,"built":9642,"Ġutf":9643,"htlc":9644,"Ġdeep":9645,"Ġactivity":9646,"Ġagreements":9647,"curr":9648,"vertise":9649,"Ġ>>":9650,"corp":9651,"Ġmilliseconds":9652,"ĠPURPOSE":9653,")\");":9654,"/{":9655,"Reduce":9656,"azy":9657,"crepo":9658,"ĠDatabase":9659,"Ġrefer":9660,"CHANT":9661,"DAG":9662,"perm":9663,"bob":9664,"springframework":9665,"Overflow":9666,"Ġcarol":9667,"ActiveX":9668,"StackTrace":9669,"underfs":9670,"Ġwindows":9671,"Ġfeed":9672,"ensity":9673,"jm":9674,"lapse":9675,"ourse":9676,"setValue":9677,"Streams":9678,"Vote":9679,"Ġtrain":9680,"Ġworld":9681,"TOKEN":9682,"abort":9683,"SCO":9684,"NEW":9685,"isMobileDevice":9686,"processing":9687,"Ġlat":9688,"ITNESS":9689,"Working":9690,"Ġsn":9691,"Previous":9692,"Idle":9693,"EXPRESSION":9694,"CHANTABILITY":9695,"remaining":9696,"getUuid":9697,"Ġcommitted":9698,"COLUMN":9699,"ĠPARTICULAR":9700,"topology":9701,"isTablet":9702,"urther":9703,"getLocal":9704,"Ġattempts":9705,"Ġstrategy":9706,"va":9707,"Listen":9708,"Ġbackoff":9709,"producer":9710,"appy":9711,"andra":9712,"threads":9713,"Ġfilesystem":9714,"cidr":9715,"Aol":9716,"sep":9717,"sFor":9718,"lhs":9719,"MajorVer":9720,"rd":9721,"Aliases":9722,"LOAT":9723,"queries":9724,"MinorVer":9725,"Ġperm":9726,"Ġprincipal":9727,"WithError":9728,"Ġcontract":9729,"lnrpc":9730,"Tile":9731,"ĠMERCHANTABILITY":9732,"Conflict":9733,"plicated":9734,"ĠgetStatus":9735,"ĠFITNESS":9736,"ActiveXControls":9737,"BackgroundSounds":9738,"AolVersion":9739,"Checked":9740,"oting":9741,"`).":9742,"Hello":9743,"catName":9744,"fixed":9745,"Ġfixture":9746,"hdfs":9747,"Ġgood":9748,"assandra":9749,"proof":9750,"fcrepo":9751,"ĠAlluxioURI":9752,"Ġhappens":9753,"Aggregation":9754,"Ġev":9755,"95":9756,"Ġstatements":9757,"Ġthreshold":9758,"Ġiterate":9759,"consul":9760,"ĠDuration":9761,"Ġencryption":9762,"urface":9763,"Ġweights":9764,"Bridge":9765,"Unary":9766,"ĠTY":9767,"Ġbasic":9768,"Getenv":9769,"Ġconsistent":9770,"Ġmaybe":9771,"WORD":9772,"DL":9773,"aaaa":9774,"setAttribute":9775,"ĠSw":9776,"Ġbash":9777,"SCHE":9778,"Ġattention":9779,"eg":9780,"/:":9781,"receive":9782,"Ġhex":9783,"__['":9784,"EXEC":9785,"servers":9786,"Ġspecifies":9787,"ĠObserver":9788,"ImmutableMap":9789,"}\")":9790,"nounce":9791,"GL":9792,"spy":9793,"ĠAppleWebKit":9794,"Signal":9795,"ĠTree":9796,"aggregate":9797,"KHTML":9798,"ĠXML":9799,"Secrets":9800,"ONLY":9801,"Fixture":9802,"Ġtw":9803,"Ġbl":9804,"Routing":9805,"hn":9806,"cade":9807,"dependency":9808,"CHANNEL":9809,"DataStore":9810,"Draft":9811,"ĠItem":9812,"OnOff":9813,"listeners":9814,"Ġcontainers":9815,"ĠCake":9816,"ĠSubscriber":9817,"ByteArray":9818,"Keywords":9819,"bt":9820,"ĠEach":9821,"ResultSet":9822,"dependent":9823,"GLOBALS":9824,"Prev":9825,"Ġarchive":9826,"ĠwaitFor":9827,"Proposal":9828,"ĠtblInfo":9829,"trial":9830,"Ġpret":9831,"wal":9832,"Ġloss":9833,"ĠDag":9834,"Ġchart":9835,"ĠPublishers":9836,"phan":9837,"ĠAlice":9838,"Ġscheduled":9839,"working":9840,"Ġoverwrite":9841,"AF":9842,"Calcite":9843,"ubb":9844,"RESULT":9845,"getContext":9846,"follow":9847,"61":9848,"placement":9849,"Ġgoing":9850,"ĠRef":9851,"Ġhelpers":9852,"Chart":9853,"Reporter":9854,"\").(":9855,"predict":9856,"Ġlarg":9857,"Ġtargets":9858,"assertIs":9859,"Ġbounds":9860,"Through":9861,"Maps":9862,"LAY":9863,"ortemp":9864,"blog":9865,"meridiem":9866,"fast":9867,"Ġrad":9868,"Dirs":9869,"Exports":9870,"power":9871,"ĠMedia":9872,"confirm":9873,"Ġcomparison":9874,"Fact":9875,"ĠdefaultValue":9876,"Estim":9877,"pretrained":9878,"gs":9879,"ĠQueue":9880,"Jar":9881,"collector":9882,"ĠProto":9883,"solr":9884,"/',":9885,"jp":9886,"ĠBE":9887,"ĠModule":9888,"1024":9889,"Low":9890,"availableException":9891,"RIGHT":9892,"()`":9893,"colortemp":9894,"Ġsubscribe":9895,"}`);":9896,"(':":9897,"Parsed":9898,"Ġ\\\\":9899,"Syntax":9900,"hemer":9901,"ratch":9902,"Ġlegacy":9903,".\"),":9904,"ectl":9905,"\")),":9906,"heartbeat":9907,"Ġ#{":9908,"Sat":9909,"quee":9910,"Ġchecker":9911,"ubectl":9912,"Ġmaps":9913,"Blocking":9914,"ĠConstants":9915,"mento":9916,"Ġhard":9917,"199":9918,"Patient":9919,"Ġindicating":9920,"ĠFacebook":9921,"tu":9922,"Nanos":9923,"Ġrhs":9924,"=-":9925,"PAGE":9926,"ffected":9927,"Sn":9928,"1111":9929,"specific":9930,"sequent":9931,"Ġinstruction":9932,"inspect":9933,"lim":9934,"/#":9935,"234":9936,"lipse":9937,"Ġwrites":9938,"removed":9939,"SECOND":9940,"Ratio":9941,"Coordinator":9942,"voked":9943,"Assembly":9944,"uplicates":9945,"comments":9946,"configs":9947,"GroupId":9948,"Ġglob":9949,"isRequired":9950,"Ġphase":9951,"ĠBrowser":9952,"PubKey":9953,"getMax":9954,"Ġttl":9955,"IDENT":9956,"aken":9957,"ĠUnsupportedOperationException":9958,"Jet":9959,"scores":9960,"datasets":9961,"strategy":9962,"vcc":9963,"Ġindicate":9964,"Deadline":9965,"fileId":9966,"IF":9967,"Ġsmall":9968,"ĠFE":9969,"ĠMark":9970,"ASOURCE":9971,"cloudstack":9972,"kill":9973,"answer":9974,"pf":9975,"Ġframework":9976,"avg":9977,")'":9978,"pickle":9979,"Ġfiltered":9980,"versal":9981,"ricted":9982,"CHAR":9983,"Ġincoming":9984,"GroupName":9985,"ĠFormat":9986,"ypervisorType":9987,"Ġ'=',":9988,"]}":9989,"Ġdraw":9990,"_:":9991,"Keyspace":9992,"Tier":9993,"getLast":9994,"AsString":9995,"gran":9996,"ellow":9997,"inon":9998,"illar":9999,"Ġsv":10000,"gether":10001,"Ġserialized":10002,"ENFORCE":10003,"addHeader":10004,"routes":10005,"Ġentities":10006,"jstree":10007,"(\"{}":10008,"tier":10009,"Please":10010,"Revision":10011,"tail":10012,"particip":10013,"Handlers":10014,"So":10015,"migration":10016,"Ġimages":10017,"Ġunexpected":10018,"!\",":10019,">`":10020,"Ġ['',":10021,"Ġcover":10022,"reporter":10023,"typ":10024,"WARNING":10025,"registerLanguage":10026,"Starting":10027,"Based":10028,"ĠRo":10029,"zap":10030,"levant":10031,"ĠRemote":10032,"ENSION":10033,"tile":10034,"ĠReset":10035,"Ġshut":10036,"readonly":10037,"ami":10038,"wall":10039,"expectation":10040,"compatible":10041,"igu":10042,"Ġformatted":10043,"Ġinfer":10044,"Ġallocation":10045,"Ġasynchronous":10046,"SYSTEM":10047,"cg":10048,"ĠEnum":10049,"ĠINTO":10050,"Ġinherit":10051,"sect":10052,"POOL":10053,"62":10054,"always":10055,"Ġfact":10056,"(\\\\":10057,"hest":10058,"TiDB":10059,"Ġfunding":10060,"distinct":10061,"ĠTe":10062,"\"].(":10063,"Ġcomplex":10064,"PlanNode":10065,"\"{":10066,"Ġ];":10067,"versed":10068,"Ġendpoints":10069,"Connections":10070,"written":10071,"Effect":10072,"ĠPair":10073,"Responses":10074,"sy":10075,"Ġhad":10076,"Clock":10077,"94":10078,"inet":10079,"orders":10080,"Ġaggregate":10081,"ĠVm":10082,"Workers":10083,"Ġ'{}":10084,"minute":10085,"willReturn":10086,"Inputs":10087,"Ġfast":10088,"comm":10089,"READER":10090,"DArray":10091,"Cla":10092,"ktop":10093,")*":10094,"DATASOURCE":10095,"AX":10096,"ĠTemplate":10097,"Ġcost":10098,"Animation":10099,"marketing":10100,"]{":10101,"Collate":10102,"bi":10103,"ĠAdds":10104,"Ġconsumer":10105,"ĠDI":10106,"Grant":10107,"ionError":10108,"atial":10109,"Zip":10110,"cake":10111,"DOC":10112,"ORI":10113,"velope":10114,"ĠElement":10115,"Ġdifference":10116,"REQUI":10117,"ethereum":10118,"\"][\"":10119,"Ġsimilar":10120,"PERSIST":10121,"Ġrecogn":10122,"ational":10123,"Needed":10124,"Ġvcmp":10125,"2017":10126,"Requested":10127,"Dashboard":10128,"Div":10129,"ilent":10130,"checkArgument":10131,"ucene":10132,"angular":10133,"Ġwhole":10134,"FOUND":10135,"Cop":10136,"fficient":10137,"Gauge":10138,"testAcc":10139,"yled":10140,"Ġsamples":10141,"ByteBuf":10142,"Prob":10143,"gpu":10144,"Library":10145,"dumps":10146,"ana":10147,"LoadBalancer":10148,"ĠnativeEvent":10149,"Ġreached":10150,"Ġfd":10151,"Ġcopies":10152,"getModule":10153,"ANY":10154,"Ġcross":10155,"chk":10156,"ĠTEST":10157,"tikv":10158,"Propag":10159,"placeholder":10160,"uffle":10161,"itories":10162,"ĠonNext":10163,"eration":10164,"commits":10165,"Fingerprint":10166,"binding":10167,"Ġdialog":10168,"CompletableFuture":10169,"filtered":10170,"Ġdigest":10171,"caller":10172,"fileName":10173,"ĠbuiltinFunc":10174,"ya":10175,"Comments":10176,"isEqualTo":10177,"amd":10178,"Receiver":10179,"Embed":10180,"tinuous":10181,"OrderBy":10182,"moves":10183,"getService":10184,"ovy":10185,"83":10186,"Streaming":10187,"CollectionSet":10188,"Ġdot":10189,"ĠORDER":10190,"vidence":10191,"prevent":10192,"cn":10193,"']),":10194,"iq":10195,"effect":10196,"Closure":10197,"Ġmarked":10198,"Ġlocks":10199,"Ġcommits":10200,"icient":10201,")`":10202,"Peers":10203,"ingScheme":10204,"roovy":10205,"Ġpositive":10206,"UniqueString":10207,"accumulo":10208,"Ġnormalized":10209,"substr":10210,"projects":10211,"Regions":10212,"ĠCons":10213,"ARK":10214,"rupt":10215,"\"][":10216,"ceeds":10217,"Ġdns":10218,"JETPACK":10219,"Refs":10220,"MISSION":10221,"ĠMaster":10222,"Ġquote":10223,"ZK":10224,"categories":10225,"Ġhy":10226,"Bag":10227,"Ġproblem":10228,"heads":10229,"Ġ!!":10230,"bias":10231,"ALOG":10232,"queued":10233,"cheduling":10234,"().__":10235,"NotEmpty":10236,"Ġloader":10237,"HttpRequest":10238,"Ġcurr":10239,"almost":10240,"cha":10241,"hosts":10242,"Ġ'&":10243,"Markup":10244,"omial":10245,"tend":10246,"`${":10247,"CONTAINER":10248,"ifiable":10249,"InMemory":10250,"Navigation":10251,"Compute":10252,"Ġindividual":10253,"Ġcircuit":10254,"Ġremain":10255,"Waiting":10256,"policies":10257,"Initialized":10258,"Ġmonths":10259,"recognized":10260,"hemeral":10261,"ufficient":10262,"GU":10263,"Try":10264,"acquire":10265,"sites":10266,"chemy":10267,"dttm":10268,"Addrs":10269,"LINK":10270,")\\.(":10271,"\"'":10272,"ACTIVE":10273,"Ġyaml":10274,"nail":10275,"ĠGraphQL":10276,"Ġtier":10277,"touchscreen":10278,"RR":10279,"upgrade":10280,"Legacy":10281,"Vlan":10282,"Ġmaterial":10283,"Ġapplying":10284,"Iteration":10285,"Ġcopied":10286,"Ġanswer":10287,"NETTY":10288,"Ġpr":10289,"Ġ19":10290,"}</":10291,"agemaker":10292,"arning":10293,"Ġkill":10294,"Ġbottom":10295,"ĠOrdered":10296,"MUL":10297,"Ġinserted":10298,"Ġboundary":10299,"intervals":10300,"While":10301,"ValueType":10302,"Ġinflux":10303,"CTED":10304,"exposes":10305,"Ġdep":10306,"Ġhljs":10307,"apos":10308,"82":10309,"ims":10310,"dynamic":10311,"CKET":10312,"Ġequals":10313,"Ġperformed":10314,"ATTRI":10315,"FileSystemMaster":10316,"]->":10317,"Ġmatcher":10318,"Attrs":10319,"ĠFIX":10320,"Volumes":10321,"Signed":10322,"cdf":10323,"foob":10324,"fi":10325,"Htlc":10326,"dotmarketing":10327,"heap":10328,"Bulk":10329,"Ġsnap":10330,"Mult":10331,"TASK":10332,"ĠBob":10333,"(\"\")":10334,"Ġcomments":10335,"Notes":10336,"ario":10337,"Ġasc":10338,"association":10339,"ĠStruct":10340,"Phone":10341,"Ġkeyspace":10342,"queeze":10343,"Ġdetermined":10344,"Ġwfv":10345,"ĠGit":10346,"servlet":10347,"Ġ80":10348,"Blank":10349,"abi":10350,"ĠBytes":10351,"Ġgit":10352,"expiration":10353,"ROP":10354,"Ġclazz":10355,"Tools":10356,"walk":10357,"raiden":10358,"Ġpast":10359,"getBytes":10360,"ĠĠĠĠĠĠĠĠĠĠĠĠĠĠĠĠĠĠĠĠĠĠ":10361,"ĠCallable":10362,"observ":10363,"BackpressureSupport":10364,"former":10365,"BackpressureKind":10366,"ism":10367,"Stored":10368,"Bottom":10369,"Ġ::":10370,"2015":10371,"ĠfileName":10372,"descriptor":10373,"connector":10374,"Kubernetes":10375,"ĠSequence":10376,"isinstance":10377,"arily":10378,"ĠJoin":10379,"Ġdi":10380,"Ġslot":10381,"Ġ2015":10382,"TopN":10383,"Ġtrim":10384,"measure":10385,"Ġexactly":10386,"predicate":10387,"ServerError":10388,"Provision":10389,"ĠDef":10390,"Ġeverything":10391,"cross":10392,"uck":10393,"Indexer":10394,"MediaType":10395,"ĠWARRANTY":10396,"Ġfee":10397,"Unsigned":10398,"Ġattemp":10399,"rune":10400,"ĠOne":10401,"....":10402,"checks":10403,"limited":10404,"marb":10405,"Ġsem":10406,"Ġtyp":10407,"highlight":10408,"ĠconfigureReporting":10409,"ĠAccessControlException":10410,"Ġappear":10411,"Dif":10412,"PUB":10413,"irt":10414,"Ġacl":10415,"ensors":10416,"Ġshouldn":10417,"InstanceId":10418,"MANAG":10419,"Targets":10420,"Will":10421,"ĠTiDB":10422,"Operators":10423,"ĠPut":10424,"aily":10425,"ObjectMeta":10426,"Ġcharm":10427,"checkbox":10428,"Ġcookie":10429,"alive":10430,"heel":10431,"Ġ^":10432,"airflow":10433,"chedulers":10434,"Specifier":10435,"inten":10436,"Ġbits":10437,"Ġsubnet":10438,"ABEL":10439,"HttpClient":10440,"Contract":10441,"received":10442,"requested":10443,"(?":10444,"displayName":10445,"ritical":10446,"ĠFloat":10447,"getDescription":10448,"standard":10449,"pip":10450,"Align":10451,"FULL":10452,"ermint":10453,"Qualifier":10454,"MountPoint":10455,"memberof":10456,"ENER":10457,"CC":10458,"ATTRIBU":10459,"Ġbuffers":10460,"streams":10461,"bits":10462,"400":10463,"__()":10464,"PK":10465,"ucceeded":10466,"Ġ\"__":10467,"Ġattached":10468,"ĠVirtualMachine":10469,"persistence":10470,"lr":10471,"ĠEditor":10472,"Ġdepth":10473,"Ġalpha":10474,"RU":10475,"ĠGET":10476,"Ġcoord":10477,"andidates":10478,"Ġremoving":10479,"Ttl":10480,"Conditional":10481,"ignored":10482,"mrs":10483,"Ġissues":10484,"Requires":10485,"umbnail":10486,"Ġalert":10487,"cursively":10488,"Ġpatent":10489,"Ġones":10490,"sf":10491,"DisplayName":10492,"Ġdc":10493,"Guest":10494,"IGN":10495,"eny":10496,"SPE":10497,"ĠIMP":10498,"Ġcertain":10499,"andb":10500,"replay":10501,"ivot":10502,"ConfVars":10503,"Ġlocations":10504,"Mutation":10505,"startTime":10506,"ĠInitialize":10507,"ĠCPU":10508,"mapped":10509,"audio":10510,"StartTime":10511,"Ġ17":10512,"97":10513,"itr":10514,"Ġreally":10515,"Inspector":10516,"ital":10517,"CheckedException":10518,"implementation":10519,"CONNECT":10520,"Aware":10521,"person":10522,"=}":10523,"ĠSET":10524,"Ġdoing":10525,"Ġabort":10526,"2012":10527,",\\":10528,"Tracer":10529,"ĠPATENTS":10530,"bd":10531,"ember":10532,"dask":10533,"Ġprocessor":10534,"Ġstrip":10535,"Ġhosts":10536,"Ġdelegate":10537,"Ġextend":10538,"kely":10539,"FORM":10540,"LATE":10541,"ODE":10542,"querySelector":10543,"ĠASF":10544,"poss":10545,"mn":10546,"('--":10547,"tokenizer":10548,"brid":10549,"Ġseen":10550,"Ġexecuting":10551,"StoragePool":10552,"(...":10553,"evalu":10554,"Ġwatcher":10555,"////////////////////////////////":10556,"Ġrc":10557,"Ġchecksum":10558,"Visit":10559,"Fill":10560,"inheritdoc":10561,"Ġsatisf":10562,"Ġpacket":10563,"Ġdeal":10564,"ĠMetrics":10565,"ĠBit":10566,"Ġgrid":10567,"tinuation":10568,"GRPC":10569,"Hooks":10570,"isDirectory":10571,"bounded":10572,"AccessException":10573,"ĠMultiIndex":10574,"Ġtriggered":10575,"/${":10576,"Vec":10577,"setProperty":10578,"ĠTLS":10579,"RECE":10580,"etched":10581,"WAIT":10582,"ĠSkip":10583,"llum":10584,".)":10585,"Ġask":10586,"atype":10587,"('%":10588,"ĠIPv":10589,"UniqueId":10590,"Images":10591,"Plot":10592,"PB":10593,"foobar":10594,"initializer":10595,"LTER":10596,"typedef":10597,"ĠSparkContext":10598,"ddd":10599,"ĠInsert":10600,"Ġpeers":10601,"rdd":10602,"normalized":10603,"Regexp":10604,"ĠMaybe":10605,"Ġprojection":10606,"101":10607,"rapping":10608,"Shift":10609,"PARATOR":10610,"versation":10611,"hours":10612,"87":10613,"Ġconfirm":10614,"foreign":10615,"WEBPACK":10616,"handleChange":10617,"parseInt":10618,"Ġ$_":10619,"Dial":10620,"getBoolean":10621,"Ġtls":10622,"Ġminute":10623,"SHOW":10624,"AML":10625,"ĠCompletable":10626,"genOnOff":10627,"Ġdummy":10628,"ung":10629,"endsWith":10630,"ĠCOUNT":10631,"SITE":10632,"urge":10633,"Ġpointer":10634,"Ġdask":10635,"ĠRequired":10636,"Ġopened":10637,"Extractor":10638,"Terminal":10639,"onata":10640,"Ġlevels":10641,"Ġecho":10642,"intenance":10643,"PERMISSION":10644,"psert":10645,"Specific":10646,"AlterTable":10647,"prepared":10648,"xlarge":10649,"Ġqb":10650,"ORAGE":10651,"seudo":10652,"management":10653,"Verifier":10654,"METRI":10655,"Renderer":10656,"eclipse":10657,"filer":10658,"!=":10659,"537":10660,"Ġctrl":10661,"reactor":10662,"encryption":10663,"Lost":10664,"Ġssh":10665,"ĠEND":10666,"Book":10667,"delegate":10668,"Ġblocking":10669,"Ġauthorization":10670,"Executors":10671,"strumentation":10672,"RUNNING":10673,"Ġtablet":10674,"ĠKeyError":10675,"------------------------":10676,"overflow":10677,"lications":10678,"Recogn":10679,"Ġvalidator":10680,"getSource":10681,"MILLISECONDS":10682,"rName":10683,"getSession":10684,"transformers":10685,"enario":10686,"wrapped":10687,"Ġest":10688,"Filesystem":10689,"SIGN":10690,"polation":10691,"Resolved":10692,"TRA":10693,"CheckReturnValue":10694,"Ġshell":10695,"Ġnewly":10696,"Creator":10697,"MARY":10698,"calculate":10699,"routing":10700,"Ġhit":10701,"embeddings":10702,"ĠReference":10703,"sWith":10704,"thers":10705,"ĠMerge":10706,"Ġ23":10707,"Ġgateway":10708,"Skipping":10709,"Dirty":10710,"onts":10711,"Ġhandlers":10712,"FLOW":10713,"rase":10714,"quet":10715,"configureKey":10716,"Ġ2016":10717,"TypeInfo":10718,"Generation":10719,"constant":10720,"LONG":10721,"Ġnn":10722,"team":10723,"Ġdead":10724,"floor":10725,"ĠTYPE":10726,"}))":10727,"ĠBinary":10728,"consistent":10729,"CONF":10730,"ĠDotDataException":10731,"Ġreads":10732,"devices":10733,"cii":10734,"CAN":10735,"Perm":10736,"duces":10737,"Ġsubset":10738,"Vmware":10739,"getTableName":10740,"PASS":10741,"Ġfreq":10742,"distributed":10743,"principal":10744,"[]>":10745,"Perf":10746,"ĠSecurity":10747,"ĠCommit":10748,"Ġextensions":10749,"micro":10750,"ColName":10751,"getConfig":10752,"LIMIT":10753,"meria":10754,"LoggerFactory":10755,"IGINT":10756,"Ġupon":10757,"Ġssl":10758,"coverage":10759,"<-":10760,"grp":10761,"glog":10762,"FLAG":10763,"verity":10764,"Association":10765,"Recovery":10766,"\\\"\"":10767,"Ġsimply":10768,"provide":10769,"Ġobserv":10770,"Ġfurther":10771,"Ġ\"\");":10772,"Ġregexp":10773,"Indicator":10774,"ĠDrop":10775,"Coordinates":10776,"Ġgithub":10777,"Ġsecondary":10778,"published":10779,"cop":10780,">=":10781,"Handles":10782,"javascript":10783,"CreatePipeline":10784,"REPL":10785,"tblInfo":10786,"vim":10787,"esis":10788,"preview":10789,"yellow":10790,"Ġretries":10791,"Submit":10792,"CalciteTests":10793,"entially":10794,"Lambda":10795,"ĠFEATURE":10796,"minion":10797,"RY":10798,"Ġminutes":10799,"Expired":10800,"Ġ42":10801,"RowCount":10802,"ĠeZ":10803,"Ġcart":10804,"imit":10805,"TestCheckFunc":10806,"LEMENT":10807,"timedelta":10808,"could":10809,"\":[\"":10810,"Ġremoves":10811,"GraphQL":10812,"asis":10813,"vocab":10814,"peated":10815,"Ġindexer":10816,"Ġpants":10817,"nodeType":10818,"Ġholds":10819,"examples":10820,"LES":10821,"CommitInfo":10822,"arable":10823,"ocode":10824,"NodeID":10825,"AAAA":10826,"Declar":10827,"Outputs":10828,"$/":10829,"attn":10830,"ĠDat":10831,"Ġworkspace":10832,"ĠPy":10833,"Ġ25":10834,"ADATA":10835,"Ġminio":10836,"anity":10837,"Ġcodes":10838,"liver":10839,"]?":10840,"mErr":10841,"Ġ\".\"":10842,"ĠSave":10843,"Proc":10844,"TestUtils":10845,")})":10846,"iana":10847,"Ġdeleting":10848,"TRACT":10849,"ĠVolume":10850,"Analyzer":10851,"UNDERFS":10852,"mar":10853,"Accum":10854,"ĠCOMM":10855,"BACKUP":10856,"ĠJOIN":10857,"studio":10858,"('*').":10859,"Ġstreams":10860,"Ġestim":10861,"daemon":10862,"Ġlost":10863,"Continue":10864,"FLOAT":10865,"Notifier":10866,"mine":10867,"bulk":10868,"Diagnost":10869,"IfAbsent":10870,"ĠBlob":10871,"drools":10872,"ĠSync":10873,"Appender":10874,"operand":10875,"autos":10876,"ĠChange":10877,"resume":10878,"Ġstyles":10879,">/":10880,"defineProperty":10881,"ĠRegion":10882,"Ġlayers":10883,"COVER":10884,"Ġphysical":10885,"anned":10886,"Ordered":10887,"Ġsq":10888,"ues":10889,"wbem":10890,"ĠReactDOM":10891,"qubits":10892,"clock":10893,"Ġack":10894,"percent":10895,"Ġfew":10896,"Transactions":10897,"tendermint":10898,"ĠIgnore":10899,"Ġinitialization":10900,"ooKeeper":10901,"uent":10902,"WaitFor":10903,"ĠLogical":10904,"Ġrepos":10905,"ByID":10906,"MBER":10907,"monthsShort":10908,"300":10909,"Ġprobably":10910,"NodeName":10911,"UserId":10912,"Ġalter":10913,"associ":10914,"did":10915,"ASF":10916,"Separator":10917,"Shape":10918,"Mono":10919,"argv":10920,"Ġtokenizer":10921,"InterruptedException":10922,"ili":10923,"CIDR":10924,"{`":10925,"HTLC":10926,"Ġcp":10927,"Inodes":10928,"optimizer":10929,")}.":10930,"Known":10931,"bra":10932,"Availability":10933,"lluminate":10934,"Retrie":10935,"Ġheartbeat":10936,"lapsed":10937,"ĠSyn":10938,"assertQuery":10939,"Ġ40":10940,"ĠDocker":10941,"ĠFIXME":10942,"processors":10943,"Ġign":10944,".*;":10945,"Geo":10946,"formatter":10947,"Ġsubmit":10948,"Ġcoordinate":10949,"flatMap":10950,"Ġbeginning":10951,"Ds":10952,"(){":10953,"Cycle":10954,"ectors":10955,"Ġ'+":10956,"Ġtogether":10957,"Kafka":10958,"iding":10959,"callProcedure":10960,"(\"--":10961,"Producer":10962,"Ġroles":10963,"Price":10964,"ĠOP":10965,"EditorFragment":10966,"ĠSymbol":10967,"sen":10968,"zookeeper":10969,"Finder":10970,"TableID":10971,"Ġcss":10972,"Ignored":10973,"600":10974,"Ġdom":10975,"\"]:":10976,"Ġdefines":10977,"ĠWill":10978,"mInodeTree":10979,"Fake":10980,"retries":10981,"KeyValue":10982,"article":10983,"Ġvault":10984,"MX":10985,"generic":10986,"EventType":10987,"BEM":10988,"HA":10989,"ifetime":10990,"Histogram":10991,"Ġazkaban":10992,"Ġsteps":10993,"Ġresolver":10994,"ibling":10995,"Composite":10996,"Ġvideo":10997,"absolute":10998,"lide":10999,"ventory":11000,"CAT":11001,"Ġvpc":11002,"here":11003,"Ġsleep":11004,"yarn":11005,"tection":11006,"UnderFileSystem":11007,"Ġincorrect":11008,"Ġevaluation":11009,"concurrency":11010,"Comb":11011,"CloudBackup":11012,"leader":11013,"mongodb":11014,"Ġserialize":11015,"dropout":11016,"look":11017,"SizeBytes":11018,"Invariant":11019,"orient":11020,"breakpoint":11021,"Temporary":11022,"pause":11023,"reload":11024,"Ġwords":11025,"MEDIA":11026,"BR":11027,"caped":11028,"addEventListener":11029,"seek":11030,"omad":11031,"generation":11032,"ĠWH":11033,"ĠShow":11034,"Collation":11035,"|\\":11036,"Ġrecover":11037,"positions":11038,"Framework":11039,"InodeFile":11040,"Matching":11041,"TrimSpace":11042,"Ġprocesses":11043,"organization":11044,"oser":11045,"ĠGeneric":11046,"MITED":11047,"sers":11048,"ĠBasic":11049,"AbsolutePath":11050,"Capability":11051,"Ġdetected":11052,"oauth":11053,"distance":11054,"credential":11055,"Ġens":11056,"Routes":11057,"tri":11058,"Fsp":11059,"ratio":11060,"choices":11061,"Mis":11062,"setP":11063,")+":11064,"DAY":11065,"Ġresume":11066,"vit":11067,"wfe":11068,"Ġdruid":11069,"getOr":11070,"Ġgive":11071,"xff":11072,"animation":11073,"ĠAfter":11074,"NAMESPACE":11075,"Ġencoder":11076,"Kube":11077,"ctl":11078,"jc":11079,"keyspace":11080,"DIST":11081,"ĠVector":11082,"56789":11083,"Ġing":11084,"SOURCE":11085,"Ġpackages":11086,"rw":11087,"Ġrendering":11088,"gon":11089,"ThreadPool":11090,"ality":11091,"REP":11092,"UNKNOWN":11093,"itter":11094,"anceled":11095,"Imagick":11096,"}\".":11097,"ĠSort":11098,"ZER":11099,"oration":11100,"[%":11101,"marker":11102,"SEPARATOR":11103,"depends":11104,"ĠRetrieve":11105,"ased":11106,"Enterprise":11107,"processed":11108,"Ġgoroutine":11109,"consumer":11110,"ĠfilePath":11111,"ĠAST":11112,"_)":11113,"_;":11114,"QUALI":11115,"IndexOf":11116,"Ġlinks":11117,"Sizes":11118,"mc":11119,"leet":11120,"iguous":11121,"baseBuiltinFunc":11122,"BS":11123,"PHP":11124,"Resume":11125,"URATION":11126,"ĠCarol":11127,"errs":11128,"too":11129,"Ġ128":11130,"dirs":11131,"WP":11132,"rab":11133,"Matchers":11134,"foot":11135,"plannercore":11136,"dao":11137,"uniform":11138,"activate":11139,"Ġresponses":11140,"MARK":11141,"ĠOUT":11142,"iw":11143,"ĠJson":11144,"ĠCloudRuntimeException":11145,"ĠEmber":11146,"Cart":11147,"MULTI":11148,"Ġcallbacks":11149,"EQ":11150,"343":11151,"Sim":11152,"ĠGROUP":11153,"Repeat":11154,"erance":11155,"DockerSuite":11156,"Ġnotifications":11157,"allocate":11158,"igrations":11159,"Mule":11160,"Ġdepending":11161,"notification":11162,"Ġ'__":11163,"Best":11164,"ĠSupport":11165,"Storm":11166,"ĠPlan":11167,"0000000000000000":11168,"Samples":11169,"Ġfront":11170,"Wrapf":11171,"ĠCRE":11172,"93":11173,"pawn":11174,"subscri":11175,"inality":11176,"Ġcmp":11177,"ĠLine":11178,"WHERE":11179,"ablis":11180,"Ġdetail":11181,"Expiry":11182,"Indexed":11183,"Ġemitting":11184,"initialized":11185,"SCHEMA":11186,"ĠCl":11187,"APIClient":11188,"ĠPlugin":11189,"ats":11190,"rape":11191,"Calls":11192,"onClick":11193,"ĠSql":11194,"ette":11195,"Expand":11196,"Ġsends":11197,"ColumnInfo":11198,"Expressions":11199,"DeviceID":11200,"MEM":11201,"ĠBatch":11202,"Retries":11203,"_(?:":11204,"cost":11205,"pex":11206,"metry":11207,"ĠMapping":11208,"city":11209,"Remo":11210,"splice":11211,"Ġtool":11212,"Kernel":11213,"Ġpause":11214,"logutil":11215,"major":11216,"ĠHiveException":11217,"ancellation":11218,"specs":11219,"ĠDNS":11220,"ĠSome":11221,"Ġthings":11222,"mis":11223,"Callbacks":11224,"Ġoverflow":11225,"ĠSK":11226,"lp":11227,"erable":11228,"Ġmarkup":11229,"Rew":11230,"Datacenter":11231,"Ġ]:":11232,"ĠFe":11233,"ners":11234,"STORAGE":11235,"Ġsprintf":11236,"getCluster":11237,"replicas":11238,"bone":11239,"Ġindexing":11240,"INS":11241,"physical":11242,"HASH":11243,"hose":11244,"analysis":11245,"={}":11246,"Leaf":11247,"Extent":11248,"getResponse":11249,"Days":11250,"sock":11251,"Perform":11252,"production":11253,"ĠClo":11254,"strTable":11255,"Ġvp":11256,"ĠParameter":11257,"QUALIFIER":11258,"MN":11259,"testQuery":11260,"BUT":11261,"tar":11262,"Ġfp":11263,"creation":11264,"ĠRecord":11265,"cycle":11266,"prk":11267,"2014":11268,"Ġom":11269,"350":11270,"CURRE":11271,"Ġrollback":11272,"DelayError":11273,"Ġprecision":11274,"Ġdescribe":11275,"FFFF":11276,"Ġmult":11277,"ĠPH":11278,"Vert":11279,"Documents":11280,"Moment":11281,"bing":11282,"Cli":11283,"ĠVoid":11284,".+":11285,"createClass":11286,"ĠSpecify":11287,"spot":11288,"Cut":11289,"streaming":11290,"('-":11291,"caler":11292,"ecause":11293,"Undefined":11294,"Escape":11295,"cms":11296,"Chunks":11297,"Ġ22":11298,"ashes":11299,"EXTENSION":11300,"Ġnonce":11301,"Ġregions":11302,"ĠMon":11303,"Ġaliases":11304,"dapt":11305,"Ġidentify":11306,"SHARE":11307,"Ġrouting":11308,":\"-":11309,"Ġgeneration":11310,"venience":11311,"rollment":11312,"Ġinvocation":11313,"Ġxxx":11314,"PROCESS":11315,"lxc":11316,"addClass":11317,"ResourceName":11318,"restart":11319,"cup":11320,"dataframe":11321,"<<":11322,"Ġ\"*":11323,"Ġconsistency":11324,"checkState":11325,"lated":11326,"Mail":11327,"Ġmouse":11328,"ĠTop":11329,"ServletRequest":11330,"words":11331,"_%":11332,"Ġvarchar":11333,"Replicas":11334,"oding":11335,"Pixel":11336,"Ġterminal":11337,"Ġfour":11338,"flatten":11339,"arter":11340,"CreateRepo":11341,"Ġexpired":11342,"Age":11343,"aggregators":11344,"prom":11345,"81":11346,"AlreadyExistsException":11347,"ĠTarget":11348,"rem":11349,"ACH":11350,"Ġcompatible":11351,"MBOL":11352,"ServiceException":11353,"Ins":11354,"ĠMobile":11355,"Ġ255":11356,"testAccCheck":11357,"Desired":11358,"indexing":11359,"IE":11360,"Encoded":11361,"hard":11362,"Bert":11363,"Ġcare":11364,"beginKeywords":11365,"')[":11366,"Lex":11367,"ĠPandas":11368,"ARCHAR":11369,"ission":11370,"omment":11371,"Ġmaking":11372,"Datepicker":11373,"RST":11374,"Ġoffering":11375,"pointer":11376,"Describe":11377,"Ġenviron":11378,"decor":11379,"Ġmaintain":11380,"TEGR":11381,"GG":11382,"__[\"":11383,"Ġund":11384,"Granularity":11385,"INI":11386,"bag":11387,"(`${":11388,"Ġprom":11389,"Ġsigned":11390,"={},":11391,"ĠCase":11392,"uncation":11393,"LETED":11394,"Pods":11395,"Ġkernel":11396,"TypeLonglong":11397,"sparse":11398,"Ġroutes":11399,"OnError":11400,"coin":11401,"Kv":11402,"closing":11403,"timezone":11404,"getAccount":11405,"Ġconcept":11406,"Ġmarker":11407,"Serialization":11408,"ĠClear":11409,"Ġpolicies":11410,"ĠUSE":11411,"sem":11412,"sal":11413,"isk":11414,"tao":11415,"ponent":11416,"ology":11417,"Mockito":11418,"uning":11419,"getTitle":11420,"Ġevaluate":11421,"statements":11422,"statusCode":11423,"ALTER":11424,"Team":11425,"Ġtile":11426,"iate":11427,"lyph":11428,"legend":11429,"ĠByteBuffer":11430,"aggregation":11431,"Ġmanually":11432,"Ġpower":11433,"lize":11434,"isIn":11435,"Ġinfoschema":11436,");\")":11437,"syntax":11438,"ĠCorp":11439,"hared":11440,"Startup":11441,"ĠCA":11442,"definitions":11443,"parentNode":11444,"ĠEnter":11445,"BLE":11446,"spection":11447,"Ġslow":11448,".'.":11449,"')]":11450,"ooter":11451,"quential":11452,"reach":11453,"mustExec":11454,"ĠAP":11455,"Redis":11456,"amazonaws":11457,"Ġcr":11458,"ĠSalt":11459,"IdList":11460,"Outbound":11461,"rub":11462,"ObjectType":11463,"algo":11464,"Toggle":11465,"Views":11466,"warded":11467,"tooltip":11468,"ledb":11469,"ErrorMessage":11470,"ĠHowever":11471,"authorization":11472,"Ġgra":11473,"Gra":11474,"Ġreload":11475,"orer":11476,"xarray":11477,"Ġiden":11478,"]));":11479,"general":11480,"ighb":11481,"mockito":11482,"CSS":11483,"Rdf":11484,"Ġtail":11485,"OPS":11486,"//----------------------------------------------------------------":11487,"Ġcontact":11488,"ĠOff":11489,"Bi":11490,"resize":11491,"armeria":11492,"Flen":11493,"needs":11494,"tration":11495,"Given":11496,"ingleton":11497,"weekdaysMin":11498,"illed":11499,"ManagerException":11500,"Drag":11501,":\"-\"`":11502,"Multipart":11503,"pic":11504,"projection":11505,"adjust":11506,"reserved":11507,"ĠSUB":11508,"Ġretrieved":11509,"ĠRetry":11510,"Blur":11511,"Ġleave":11512,"Ping":11513,"SYNC":11514,"TIMESTAMP":11515,"'](":11516,"DEN":11517,"Ġpub":11518,"Between":11519,"minio":11520,"HasPrefix":11521,"Ġ10000":11522,"reactDatepicker":11523,"ForeignKey":11524,"ĠAUT":11525,"Organization":11526,"Secondary":11527,"vict":11528,"ĠRoute":11529,"slot":11530,"Ġauthz":11531,"DOMFactory":11532,"Ġ[(":11533,"Ġ400":11534,"weekdaysShort":11535,"!!":11536,"icles":11537,"Ġpa":11538,"DC":11539,"###":11540,"`',":11541,"Leave":11542,"Smart":11543,"Ġoffsets":11544,"ĠĠĠĠĠĠĠĠĠĠĠĠĠĠĠĠĠĠĠĠĠĠĠĠ":11545,"cv":11546,"LockMode":11547,"VR":11548,"ĠRegExp":11549,"tester":11550,"Sender":11551,"you":11552,"ascade":11553,"Pick":11554,"Kill":11555,"nx":11556,"('[":11557,"References":11558,"Ġpipe":11559,"TCP":11560,"Ġtransient":11561,"Ġadapter":11562,"ĠCOL":11563,"Ġmon":11564,"Py":11565,"igure":11566,"Analysis":11567,"ooster":11568,"Ġviews":11569,"[])":11570,"meeting":11571,"Rotation":11572,"CY":11573,"ĠwireType":11574,"ClickListener":11575,"ĠTag":11576,"Pay":11577,"frac":11578,"INTEGER":11579,"Ġtracking":11580,"Ġnorm":11581,"Sym":11582,"ATER":11583,"ĠcreateDOMFactory":11584,"ĠMan":11585,"snippet":11586,"MetaStore":11587,"compose":11588,"Remaining":11589,"Ġ'');":11590,"Ġwin":11591,"AndGet":11592,"igital":11593,"anchor":11594,"ouchbase":11595,"ĠImplement":11596,"Ġprediction":11597,"DK":11598,"maximum":11599,"\"];":11600,"gmt":11601,"ko":11602,"Ġvert":11603,"sr":11604,"Some":11605,"isEnabled":11606,"ĠapiUrl":11607,"ĠSTR":11608,"ĠBind":11609,"Ġsubsequent":11610,"dense":11611,"getRoot":11612,"Stderr":11613,"updates":11614,"oned":11615,"PutObject":11616,"Annotate":11617,"asename":11618,"analyze":11619,"Ġchk":11620,"obs":11621,"occup":11622,"fee":11623,"],[\"":11624,"Ġreceiver":11625,"Ġpreset":11626,"Ticket":11627,"\":[{\"":11628,"Ġdashboard":11629,"CONNECTION":11630,"Shell":11631,"ĠAWS":11632,"Tracking":11633,"FrontendRoles":11634,"Ġcompiler":11635,"ĠDoctrine":11636,"backward":11637,"Ġseparator":11638,"bitrary":11639,"'\"":11640,"Ġcourse":11641,"having":11642,"invalidate":11643,"Ġsuite":11644,"SINGLE":11645,"Outcome":11646,"71":11647,"Touch":11648,"PDF":11649,"apiUrl":11650,"prodInvariant":11651,"BIN":11652,"ĠEVENT":11653,"aux":11654,"Ġtemplates":11655,"Modification":11656,"Templates":11657,"Player":11658,"EXPE":11659,"GES":11660,"Ġcaches":11661,"ĠLabel":11662,"iet":11663,"Filtration":11664,"singletonList":11665,"ularities":11666,"canonical":11667,"handlers":11668,">\");":11669,"ortex":11670,"Ġproduce":11671,"Ġcrypto":11672,"Fprintf":11673,"Ġordering":11674,"Checksum":11675,"getCode":11676,"TypeName":11677,"quiet":11678,"Spl":11679,"UFF":11680,"Ġstartup":11681,";\\":11682,"+#":11683,"apis":11684,"ENG":11685,"Ġlimits":11686,"Dns":11687,"Ġjar":11688,"ISO":11689,"Ġhide":11690,"Translation":11691,"FACT":11692,"regexp":11693,"ĠgetAll":11694,"maps":11695,"Ġ[][]":11696,"404":11697,"sizes":11698,"()</":11699,"Counts":11700,"ĠInit":11701,"lode":11702,"ĠRole":11703,"ĠLE":11704,"embeds":11705,"Ġaltern":11706,"Way":11707,"StartCommit":11708,"Helpers":11709,"advance":11710,"IDE":11711,"nity":11712,"Classification":11713,"Integration":11714,"ĠOption":11715,"Sem":11716,"Ġtruncate":11717,"uites":11718,"'_":11719,"Coordinate":11720,"}-":11721,"Descr":11722,"Instruction":11723,"\"+":11724,"Captor":11725,"NER":11726,"mgr":11727,"eternity":11728,"CollectionSetProtos":11729,"Ġwhitespace":11730,"Ġcf":11731,"Ġforeign":11732,"fla":11733,"dPanel":11734,"Dates":11735,"getLength":11736,"atar":11737,"InodeDirectory":11738,"Axis":11739,"SN":11740,"Guild":11741,"METADATA":11742,"Ġhome":11743,"FILTER":11744,"Ġtip":11745,"ĠiNdEx":11746,"sigma":11747,"ĠApi":11748,"ograph":11749,"Ġhighlight":11750,"linecorp":11751,"getQuery":11752,"Ġcontained":11753,"ĠPuppet":11754,"FUNCTION":11755,"Quorum":11756,"REST":11757,"Ġassociation":11758,"Ġspaces":11759,"Ġcandidate":11760,"loy":11761,"FinishCommit":11762,"Ġdjm":11763,"Ġ{}'.":11764,"apb":11765,"hashes":11766,"MAGE":11767,"Ġbuckets":11768,"craft":11769,"}`;":11770,"kt":11771,"getRegion":11772,"icated":11773,"ĠPOST":11774,"Discard":11775,"Ob":11776,"Tmpl":11777,")`,":11778,"ĠRepository":11779,"fb":11780,"Maximum":11781,"prite":11782,"Flash":11783,"arest":11784,"Ġ..":11785,"Ġspy":11786,"findBy":11787,"ĠWire":11788,"filled":11789,"uk":11790,"Ġmuch":11791,"newArrayList":11792,"Models":11793,"onNext":11794,"Posts":11795,"ĠEnable":11796,"ĠtestGet":11797,"ĠCommon":11798,"ĠTimeout":11799,"Extended":11800,"virt":11801,"ĠDDL":11802,"Ġgate":11803,"distribute":11804,"Prepar":11805,"Nat":11806,"Ġintro":11807,"ĠMIT":11808,"InvalidArgumentException":11809,"CASE":11810,"recipient":11811,"callbacks":11812,"ĠContentlet":11813,"#{":11814,"hore":11815,"ĠfieldName":11816,"amel":11817,"ĠobjectName":11818,"Doctrine":11819,"ĠINT":11820,"ĠNum":11821,"Ġpopulate":11822,"('*')":11823,"deferred":11824,"BadRequest":11825,"ĠcatName":11826,"999":11827,"readable":11828,"apsed":11829,"Ġitr":11830,"LABEL":11831,"getProperties":11832,"babel":11833,"Ġ300":11834,"Ġ2014":11835,"tis":11836,"GO":11837,"setText":11838,"ALLOW":11839,"Seek":11840,"Ġcompact":11841,"andReturn":11842,"Folders":11843,"viz":11844,"swap":11845,"Granularities":11846,"Broadcast":11847,"/\",":11848,"Expiration":11849,"Ġinodes":11850,"IsNull":11851,"slots":11852,"exitCode":11853,"NLS":11854,"oracledb":11855,"Ġdelimiter":11856,"Dead":11857,"Ġred":11858,"Am":11859,"LOCATION":11860,"ĠPersist":11861,"Ġ31":11862,"Ġbulk":11863,"blin":11864,"preventDefault":11865,"IMPORTED":11866,"TUR":11867,"PreTra":11868,"ĠConstruct":11869,"ople":11870,"There":11871,"(((":11872,"ĠInodeTree":11873,"arshall":11874,"perf":11875,"JournalEntry":11876,"\\\":\\\"":11877,"creasing":11878,"ored":11879,"ĠAssertionError":11880,"Ġcredential":11881,"recursive":11882,"ĠnodeName":11883,"Ġinvoice":11884,"fox":11885,"TERN":11886,"---+":11887,"Pane":11888,"Locks":11889,"enqueue":11890,"ĠCalled":11891,"gradient":11892,"Ġlc":11893,"SequenceNumber":11894,"bounce":11895,"Seed":11896,"negative":11897,"formatted":11898,"Specification":11899,"CDF":11900,"ooled":11901,"east":11902,"forms":11903,"revision":11904,"Ġtransformer":11905,"CHED":11906,"unix":11907,"Abort":11908,"modal":11909,"lemetry":11910,"hold":11911,"Ġflat":11912,"ĠNotNil":11913,"]+)":11914,"randn":11915,"Ġraised":11916,"Ġvolumes":11917,"NodeType":11918,"ĠGo":11919,"Ġreferenced":11920,"obblin":11921,"ula":11922,"OPER":11923,"ĠNAME":11924,"Ġazure":11925,"uggestion":11926,"toContain":11927,"addColumn":11928,"stores":11929,"EAR":11930,"ĠWAL":11931,"Ġleaf":11932,"codeMirror":11933,"bash":11934,"duplicate":11935,"Placement":11936,"Texture":11937,"precision":11938,"ĠRandom":11939,"GT":11940,"Symbols":11941,"Ġiterable":11942,"ialect":11943,"capture":11944,"trollers":11945,"unge":11946,"MatrixClient":11947,"ĠCore":11948,"MES":11949,"Ġinterpret":11950,"Highlight":11951,"ĠXWiki":11952,"ĠOK":11953,"Ġseem":11954,"Ġ404":11955,"dept":11956,"Injection":11957,"xxx":11958,"ĠFS":11959,"imap":11960,"envoy":11961,"anitize":11962,"ENDING":11963,"jetty":11964,"flash":11965,"ĠLast":11966,"achines":11967,"overwrite":11968,"SW":11969,"Ġlikely":11970,"ĠRa":11971,"Ġthus":11972,"Ġoverrides":11973,"ĠExecute":11974,"ĠGlobal":11975,"Clients":11976,"Ġsubclass":11977,"Ġmu":11978,"Ġdistance":11979,"iming":11980,"ĠMemory":11981,"sible":11982,"sessionVars":11983,"ĠSetup":11984,"cases":11985,"ĠMeeting":11986,"groupBy":11987,"Ġretain":11988,"perms":11989,"Networks":11990,"vlan":11991,"Exclude":11992,"Ġextended":11993,"ConfigSpec":11994,"Directive":11995,"Cancelled":11996,"ĠStats":11997,"Ġindexed":11998,"Paged":11999,"imeType":12000,"ĠLO":12001,"rew":12002,"PLAN":12003,"Scaling":12004,"Ġmoved":12005,"]},":12006,"Ġdddd":12007,"arshaller":12008,"Microsoft":12009,"Blockly":12010,"ImportState":12011,"multip":12012,"Ġvarious":12013,"renderer":12014,"ĠAgent":12015,"propag":12016,"Ġreplacement":12017,"EXIST":12018,"hvm":12019,"192":12020,"Ġdecoder":12021,"assertNot":12022,"Ġqueued":12023,"Ġtuples":12024,"RC":12025,"ĠCur":12026,"Trip":12027,"Ġaddition":12028,"seline":12029,"DownLatch":12030,"\"-":12031,"PORTED":12032,"Ġaccepts":12033,"Clusters":12034,"Ingest":12035,"esModule":12036,"VALUES":12037,"OVER":12038,"CpuCores":12039,"idence":12040,"getSchema":12041,"vg":12042,"=?":12043,"ĠCallback":12044,"ĠrespectFrontendRoles":12045,"ĠLoggerFactory":12046,"arbage":12047,"Ġallocated":12048,"Ġlarger":12049,"Resize":12050,"91":12051,"pywbem":12052,"Ġstable":12053,"ĠWorker":12054,"ADDRESS":12055,"nb":12056,"ReadWrite":12057,"Ġconnector":12058,"isFile":12059,"Quest":12060,"minimum":12061,"ĠNUM":12062,"Ġzap":12063,"ĠHttpGet":12064,"parallel":12065,"Ġcar":12066,"Ġ'../../":12067,"Ġ123":12068,"ENTIFIER":12069,"Follow":12070,"Ġearly":12071,"Recv":12072,"isP":12073,"Txns":12074,"UpperCase":12075,"ĠPRI":12076,"InstanceState":12077,"Ġwar":12078,"Vi":12079,"segments":12080,"refman":12081,"linter":12082,"ATTRIBUTE":12083,"ĠCounter":12084,"aug":12085,"prediction":12086,"iny":12087,"hef":12088,"DESCRI":12089,"Ġtrailing":12090,"nav":12091,"lazy":12092,"Ġpi":12093,"Ġspeed":12094,"DROP":12095,"Challenge":12096,":],":12097,"anning":12098,"finite":12099,"ĠPR":12100,"memo":12101,"ĠSp":12102,"ExecutionException":12103,"2013":12104,"enger":12105,"registered":12106,"Ġhonors":12107,"Ġunicode":12108,"[(":12109,"Ġ'^":12110,"granularity":12111,"computed":12112,"ĠNeed":12113,"hashCode":12114,"Additional":12115,"marble":12116,"ServiceName":12117,"EDITOR":12118,"Ġredis":12119,"Ġ'______":12120,"Ġ'______'.":12121,"Virt":12122,"Ġpurpose":12123,"Arr":12124,"canvas":12125,"connections":12126,"Ġwal":12127,"USTOM":12128,"Ġrejected":12129,"+)":12130,"FieldName":12131,"InProgress":12132,"ĠPHP":12133,"Explain":12134,"ptors":12135,"IABLE":12136,"Ġ{...":12137,"ky":12138,"NewCIStr":12139,"endantType":12140,"Svc":12141,"Ġins":12142,"ĠAggreg":12143,"AndSet":12144,"Ġoptimized":12145,"grains":12146,"anagers":12147,"ĠPod":12148,"Ġcommun":12149,"Ġlhs":12150,"Ġminion":12151,"ĠHelper":12152,"Ġpdf":12153,"FOLDER":12154,"beforeEach":12155,"Enumerate":12156,"availability":12157,"disconnect":12158,"Ġwhy":12159,"RW":12160,"modify":12161,"LICY":12162,"AMS":12163,"truncate":12164,"ĠKubernetes":12165,"Choice":12166,"Ui":12167,"commitInfos":12168,"Readable":12169,"Ġports":12170,"Compression":12171,"classname":12172,"getEntity":12173,"Ep":12174,"Ġposs":12175,"flex":12176,"Ġskipped":12177,"registration":12178,"Closer":12179,"randint":12180,"nr":12181,"'':":12182,"Hist":12183,"fers":12184,"quit":12185,"ĠRxJava":12186,"getStream":12187,"scall":12188,"Ġbackward":12189,"BID":12190,"Trust":12191,"setter":12192,"ToLower":12193,"/_":12194,"Ġraiden":12195,"lette":12196,"ĠLINE":12197,"Reverse":12198,"REF":12199,"Ġrelevant":12200,"Ġamb":12201,"Nonce":12202,"expectations":12203,"GH":12204,"Ġdatastore":12205,"MONTH":12206,"leaf":12207,"fq":12208,"openmrs":12209,"Primitive":12210,"Ġdropped":12211,"},\"":12212,"fh":12213,"PropertyType":12214,"Pipe":12215,";\",":12216,"navigation":12217,"ErrUnexpected":12218,"Arm":12219,"Ġdeletion":12220,"PF":12221,"character":12222,"teleport":12223,"Ġreact":12224,"ĠSetting":12225,"idle":12226,"pow":12227,"Hashable":12228,"UFFMAN":12229,"'\")":12230,"ĠOrderedDict":12231,"jb":12232,"ĠJenkins":12233,"tegrity":12234,"Validators":12235,"pares":12236,"ĠController":12237,"dan":12238,"west":12239,"Ġmemo":12240,"writes":12241,"Ġintern":12242,"ond":12243,"Couchbase":12244,"ĠChrome":12245,"ĠSKU":12246,"getV":12247,"ĠSER":12248,"ĠEnd":12249,"ulative":12250,"vation":12251,"inite":12252,"IdGenerator":12253,"etcd":12254,"authz":12255,"pover":12256,"resolution":12257,"Ġ?>":12258,"fname":12259,"vl":12260,":/":12261,"PRESS":12262,"Ġdeletes":12263,"ĠTimestamp":12264,"Reject":12265,"newInstance":12266,"ĠFail":12267,"Ġgeneral":12268,"Trusted":12269,"orthand":12270,"orn":12271,"Ġtaken":12272,"ĠAPILocator":12273,"ĠAnal":12274,"Ġic":12275,"Ġfore":12276,"Tunnel":12277,"VirtType":12278,"committed":12279,"MMMM":12280,"Ġcompression":12281,"compression":12282,":])":12283,"Ġplus":12284,"ĠWrap":12285,"ĠWiki":12286,"toHave":12287,"Ġide":12288,"Ġpreference":12289,"orderBy":12290,"aps":12291,"Warnf":12292,"ĠdataSource":12293,"eldb":12294,"Ġdesign":12295,"Ġprocedure":12296,"Ġsup":12297,"QB":12298,"Ġmismatch":12299,"Throws":12300,"CLUD":12301,"CLUDING":12302,"Descriptors":12303,"rhs":12304,"ĠJan":12305,"phone":12306,"Confirm":12307,"lnwire":12308,"Raft":12309,"bounds":12310,"getAbsolutePath":12311,"CommandManager":12312,"Arches":12313,"isel":12314,"deserialize":12315,"relativeTime":12316,"fr":12317,"Ġpoll":12318,"motion":12319,"ORD":12320,"deepEqual":12321,"packed":12322,"Ġarea":12323,"Ġthough":12324,"MasterClient":12325,"Propagation":12326,"lapping":12327,"mul":12328,"ĠPort":12329,"ĠSynthetic":12330,"asma":12331,"xs":12332,"ĠPhone":12333,"poly":12334,"ĠProxy":12335,"DimensionSpec":12336,"seen":12337,"participant":12338,"squeeze":12339,"ĠReader":12340,"Ġwhite":12341,"Ġvals":12342,"Ġna":12343,"ĠTF":12344,"Wire":12345,"Ġ[-":12346,"agger":12347,"RemoveAll":12348,"Puppet":12349,"uess":12350,"charm":12351,"ssenger":12352,"dow":12353,"Ġ'\\'":12354,"BatchSize":12355,"ibration":12356,"SYMBOL":12357,"Truncate":12358,"phase":12359,"Ġattachment":12360,"ĠINTER":12361,"Ġhope":12362,"Ġlazy":12363,",),":12364,"LTS":12365,"longDateFormat":12366,"Stores":12367,"locity":12368,"ĠPrint":12369,"Ġfailures":12370,"ajax":12371,"ĠAtomicInteger":12372,"ticks":12373,"Ġcomputation":12374,"JOIN":12375,"dp":12376,"Ġaccepted":12377,"FERENCE":12378,"complex":12379,"ommended":12380,"MANAGER":12381,"ĠSolr":12382,"omi":12383,"Numbers":12384,"Ġ21":12385,"Timeline":12386,"|\\\\":12387,"COMMIT":12388,"ĠnewBase":12389,"Ġhooks":12390,"ĠMIN":12391,"ParseTree":12392,"[:]":12393,"Environ":12394,"()];":12395,"turns":12396,"Invoice":12397,"ErrCode":12398,"Ġdisplayed":12399,"strconv":12400,"frames":12401,"ĠFire":12402,"Ingress":12403,"coll":12404,"Ġlead":12405,"andExpect":12406,"Creating":12407,"getOutput":12408,"CAPE":12409,"upstream":12410,"Ġassignment":12411,"lon":12412,"visitor":12413,"*-":12414,"Closeable":12415,"Breakpoints":12416,"ViewById":12417,"Ġperiods":12418,"Life":12419,"Ġmetastore":12420,"ĠConstructor":12421,"UBLE":12422,"Ġimplicit":12423,"ĠWITH":12424,"Ġ2017":12425,"(\"@":12426,"Ġbindings":12427,"addrs":12428,"Mon":12429,"HostId":12430,"Ġcompaction":12431,"sqrt":12432,"LLL":12433,"Elastic":12434,"})));":12435,"SPON":12436,"ĠUP":12437,"AGG":12438,"expose":12439,"berg":12440,"<\"":12441,"Dockerfile":12442,"Ġdiscard":12443,"offsets":12444,"sagemaker":12445,"BoolVar":12446,"Ġlb":12447,"Authz":12448,"Ġchanging":12449,"ĠRest":12450,"intent":12451,"periods":12452,"gre":12453,"three":12454,"Ġvariant":12455,"Ġord":12456,"macro":12457,"plt":12458,"ĠStandard":12459,"Slow":12460,"ĠFetch":12461,"shadow":12462,"ĠNon":12463,"TimeZone":12464,"ComposeTestCheckFunc":12465,"ĠProperties":12466,"usr":12467,"ĠDotSecurityException":12468,"ĠCurrently":12469,"Ġannotations":12470,"Ġatol":12471,"pairs":12472,"scripts":12473,"ANT":12474,"Ġage":12475,"urer":12476,"ALSE":12477,"retrieve":12478,"ĠSite":12479,"apse":12480,"extended":12481,"CD":12482,"Ġsat":12483,"ĠOperators":12484,"Ġexpects":12485,"riend":12486,"FieldSchema":12487,"ĠwithoutSuffix":12488,"ĠReplace":12489,":'":12490,"Ġunc":12491,"ĠCloseableHttpResponse":12492,"ĠresourceAws":12493,"Catch":12494,"Ġml":12495,"ĠExpr":12496,"Ġ!(":12497,"OPTIONS":12498,"ĠCatalog":12499,"ConfigFile":12500,"SKIP":12501,"ĠNoSuchObjectException":12502,"ĠUTC":12503,"gy":12504,"contentService":12505,"MER":12506,"linear":12507,"yml":12508,"ponential":12509,"[_":12510,"nextDay":12511,"radius":12512,"Ġprepared":12513,"Hazelcast":12514,"Ġpps":12515,"roomId":12516,"waiting":12517,"Ġcnt":12518,"Ġpkt":12519,"Program":12520,"UnavailableException":12521,"Ġanalyze":12522,"Serve":12523,"guest":12524,"Ġpropagate":12525,"lastDay":12526,"ircle":12527,"ĠTemp":12528,"MOUNT":12529,"NotNil":12530,"transpose":12531,"vec":12532,"Question":12533,"getElement":12534,"Ġterminate":12535,"Za":12536,"nex":12537,"LLLL":12538,"TEGRATION":12539,"products":12540,"npm":12541,"Ġdepends":12542,"UPLOAD":12543,"BIND":12544,"caption":12545,"datastore":12546,"FileSize":12547,"SPONSE":12548,"ombie":12549,"ĠSnapshot":12550,"Ġdatum":12551,"compressed":12552,"ĠTException":12553,"Repos":12554,"locations":12555,"abric":12556,"HandlerContext":12557,"repl":12558,"emptyList":12559,"ĠLists":12560,"Ġ'[]":12561,"Ġpixels":12562,"endpoints":12563,"SERI":12564,"prompt":12565,"eql":12566,"']],":12567,"sameElse":12568,"SeqNo":12569,"Stdout":12570,"ITERAL":12571,"stopped":12572,"CANCE":12573,"EB":12574,"Ġwp":12575,"5330":12576,"ĠOp":12577,"Ġvlan":12578,"ErrUnexpectedEOF":12579,"Cases":12580,"getSimple":12581,"Ġkube":12582,"workitem":12583,"lifecycle":12584,"InfoSchema":12585,"ĠCOMP":12586,"aren":12587,"getOwner":12588,"rolling":12589,"DBC":12590,"Ġmanagement":12591,"Zoom":12592,"-\\":12593,"(\"./":12594,"Ġdeclaration":12595,"Ġclock":12596,"nm":12597,"ĠValidation":12598,"wi":12599,"(/\\":12600,"fun":12601,"Ġ\"]":12602,"pin":12603,"ĠKind":12604,"LECTION":12605,"Ġrevision":12606,"getStart":12607,"1618":12608,"Ġlooking":12609,"Ġancestor":12610,"Unsafe":12611,"Python":12612,"but":12613,"DeleteAll":12614,"minutes":12615,"WNER":12616,"Ġexpectation":12617,"Ġmeeting":12618,"ĠWorkflow":12619,"\":\"\",\"":12620,"High":12621,"__.__":12622,"balancer":12623,"World":12624,"SegmentSpec":12625,"Handling":12626,"Serialized":12627,"Ġ256":12628,"possible":12629,";(":12630,"ĠparseInt":12631,"cpus":12632,"'$":12633,"Ġpriv":12634,"pyspark":12635,"asology":12636,"2010":12637,"Behavior":12638,"ights":12639,"Loan":12640,"ĠPackage":12641,"ADMIN":12642,"Dec":12643,"ProcessInstance":12644,"REC":12645,"ĠDA":12646,"formats":12647,"ĠCorporation":12648,"receiver":12649,"ClientConfig":12650,"bidder":12651,"OPY":12652,"SecurityGroup":12653,"Buffers":12654,"Ġcancelled":12655,"1235330":12656,"compareTo":12657,"Ġverbose":12658,"Pkg":12659,"Ġraft":12660,"HealthCheck":12661,"ĠCheckpoint":12662,"blank":12663,"veral":12664,"UnixNano":12665,"Ġwi":12666,"Pref":12667,"Ġzk":12668,"Camera":12669,"requestId":12670,"DataDir":12671,"Ġtemperature":12672,"3504":12673,"Ember":12674,"QUI":12675,"discovery":12676,"defineLocale":12677,"getSize":12678,"ragments":12679,"returnValue":12680,"Blog":12681,"NORE":12682,"Binlog":12683,"\",\"\\":12684,"manual":12685,"Modifier":12686,"ExprNodeDesc":12687,"JoinType":12688,"anode":12689,"Ġ(-":12690,".],":12691,"]/":12692,"Ġfac":12693,"apler":12694,"Overlay":12695,"Inbound":12696,"Dictionary":12697,"IGHT":12698,"finalize":12699,"exact":12700,"ĠLocation":12701,"ĠRece":12702,"ĠAttributeError":12703,"pref":12704,"ColumnStatistics":12705,"inator":12706,"(('":12707,"setCurrent":12708,"getMetadata":12709,"ĠFailed":12710,"edState":12711,"ĠObjects":12712,"OPTION":12713,"ĠAuthor":12714,"ashed":12715,",'":12716,"propTypes":12717,"cov":12718,"DIRECTORY":12719,"pso":12720,"Successful":12721,"Lazy":12722,"Ġcycle":12723,"allery":12724,"toParse":12725,"icons":12726,"unsupported":12727,"Ġ\":\"":12728,"plode":12729,"Grpc":12730,"DY":12731,"'</":12732,"transformer":12733,"MongoDB":12734,"Ġcanonical":12735,"ABASE":12736,"newSig":12737,"MEMBER":12738,"fana":12739,"developer":12740,"vmware":12741,"Ġintent":12742,"merged":12743,"criteria":12744,"cairo":12745,"ĠConf":12746,"sameDay":12747,"filesystem":12748,"Ġcertificates":12749,"Positive":12750,"Ġcriteria":12751,"Nav":12752,"fallback":12753,"Ġchoose":12754,"ĠExport":12755,"combine":12756,"16183504":12757,"getModuleImpl":12758,"NodeId":12759,"Ġdeterministic":12760,"ĠMissing":12761,"lastWeek":12762,"pipelineName":12763,"Ġtreat":12764,"RetryPolicy":12765,"nextWeek":12766,"Translator":12767,"SQLException":12768,"OAuth":12769,"urls":12770,"Chars":12771,"PropertyName":12772,"Ġscanner":12773,"Patterns":12774,"letions":12775,"setAlias":12776,"ocab":12777,"ĠLesser":12778,"ĠgetDefault":12779,"Shadow":12780,"ĠEntry":12781,"evt":12782,"Ġpotential":12783,"Ġopening":12784,"Ġws":12785,"backoff":12786,"hot":12787,"ĠVAR":12788,"HOLD":12789,"ulu":12790,"ZB":12791,"mv":12792,"asyMock":12793,"Ġbuilds":12794,"Ġlift":12795,"LX":12796,"atory":12797,"Statements":12798,"Ġsequences":12799,"Ġvote":12800,"sqlite":12801,"ĠExpected":12802,"Toast":12803,"Brick":12804,"<?,":12805,"Ġ??":12806,"ĠchanPoint":12807,"['_":12808,"checker":12809,"mov":12810,"ĠCOPY":12811,"Plans":12812,"dirty":12813,"Offer":12814,"PublicKey":12815,"Rol":12816,"ĠExtract":12817,"guild":12818,"Ġ'(":12819,"cred":12820,"FINI":12821,"ĠInet":12822,"ĠDirectory":12823,"nu":12824,"artifacts":12825,"()],":12826,"Ġsizes":12827,"Recorder":12828,"qubit":12829,"Ġsubstr":12830,"lucene":12831,"regular":12832,"StateChange":12833,"Ġrecovery":12834,"bidden":12835,"Js":12836,"setStatus":12837,"Ġoverridden":12838,"MAPP":12839,"gg":12840,"DISABLE":12841,"Sus":12842,"Ġleading":12843,"Ġhints":12844,"Ġharm":12845,"ELEMENT":12846,"gend":12847,".#":12848,"ĠPeriod":12849,"reh":12850,"CATE":12851,"ĠRxJavaPlugins":12852,"sink":12853,"stors":12854,"Ġdeferred":12855,"PageSize":12856,"WH":12857,"getMethod":12858,"Upsert":12859,"Star":12860,"ĠgetRandom":12861,"Ġconversion":12862,"Flowable":12863,"Serializable":12864,"ĠPolicy":12865,"Ġ\"./":12866,"currentThread":12867,"ulates":12868,"Ġstub":12869,"ĠErrInvalid":12870,"Repl":12871,"chalk":12872,"ESCAPE":12873,"[]}":12874,"ĠDoes":12875,"lift":12876,"SESSION":12877,"JsonProperty":12878,"UMENT":12879,"reet":12880,"Spark":12881,"sessionId":12882,"pachClient":12883,"ĠnewValue":12884,"into":12885,"Pr":12886,"01234":12887,"ALIAS":12888,"RFC":12889,"ĠAb":12890,"())));":12891,"SETT":12892,"distribution":12893,"Ġgeometry":12894,"ĠAppend":12895,"choice":12896,"cthing":12897,"POLICY":12898,"embedded":12899,"hc":12900,"BB":12901,"plorer":12902,"Ġaccumulator":12903,"Ġcollector":12904,"Ġexpiration":12905,"Dom":12906,"Ġcounts":12907,"Ġrevert":12908,"doy":12909,"Sheet":12910,"ĠFoo":12911,"Ġlocally":12912,"Ġaffect":12913,"rack":12914,"GBM":12915,"ĠSc":12916,"ĠSSH":12917,"Ġdetermines":12918,"getM":12919,"ServiceClient":12920,"READY":12921,"estim":12922,"hub":12923,"Ġ\"/*":12924,"Ġvim":12925,"RetentionPolicy":12926,"Bookie":12927,"Ġplaceholder":12928,"getBase":12929,"PrimaryKey":12930,"Reconc":12931,"exprs":12932,"Ġcoverage":12933,"Ġ`{\"":12934,"blocking":12935,"INITI":12936,"ExecutableFlow":12937,"Ġredistribute":12938,"Ġidle":12939,"livery":12940,"Ġensures":12941,"(['../":12942,"Then":12943,"metic":12944,"Ġwebs":12945,"Succeeded":12946,"CATED":12947,"qualified":12948,"ĠopTimeMs":12949,"Ġbroken":12950,"Ġ\"\\\"":12951,"des":12952,"ĠStrings":12953,"ĠonClick":12954,"Profiles":12955,"buckets":12956,"Hop":12957,"JobID":12958,"ĠcontentType":12959,"blockId":12960,"asm":12961,"Ġderived":12962,"tablet":12963,"Grants":12964,"_()":12965,"chars":12966,"through":12967,"Ġpositions":12968,"configured":12969,"terasology":12970,"Planner":12971,"vitess":12972,"Ġfollowed":12973,"getSimpleName":12974,"toa":12975,"wpcom":12976,"Ġgrouped":12977,"BAR":12978,"avor":12979,"ĠnodeId":12980,"Spy":12981,"slow":12982,"Ance":12983,"BlockSize":12984,"Ġrepl":12985,"what":12986,"els":12987,"Pid":12988,"Replay":12989,"PreTrained":12990,"ĉĉĉĉĉ":12991,"itect":12992,"jack":12993,"Ring":12994,"Distributed":12995,"\"}},":12996,"csr":12997,"Ġvertex":12998,"ĠCalc":12999,"Ġpreferred":13000,"Ġmedi":13001,"illing":13002,"ĠParameters":13003,"IsIn":13004,"ĠCharSequence":13005,"veal":13006,"cipe":13007,"rivers":13008,"ox":13009,"footer":13010,"Intl":13011,"Hy":13012,"Ġtransformation":13013,"minor":13014,"ios":13015,"Ticker":13016,"RegExp":13017,"Buffered":13018,"portal":13019,"OfferingId":13020,"pagination":13021,"Ġverification":13022,"Ġ!$":13023,"Ġ'.'":13024,"PA":13025,"Ġvec":13026,"Tabs":13027,"Ġeas":13028,"Registered":13029,"Outside":13030,"Futures":13031,"Ġqualifier":13032,"Ġformats":13033,"moji":13034,"Ġsites":13035,"influxdb":13036,"Ġunbounded":13037,"bg":13038,"gamma":13039,"STAR":13040,"ĠFrame":13041,"ĠIF":13042,"third":13043,"ocks":13044,"Traffic":13045,"ACCOUNT":13046,"Ġpopulated":13047,"Ġserialization":13048,"ĠHE":13049,"DCA":13050,"every":13051,"ĠAC":13052,"qst":13053,"Quick":13054,"Ġconfigurations":13055,"getMap":13056,"WM":13057,"activation":13058,"Pairs":13059,"ClusterName":13060,"SolrQuery":13061,"Ġbusybox":13062,"existent":13063,"aper":13064,"Ġmp":13065,"())->":13066,"DefaultMessage":13067,"Versioned":13068,"Pad":13069,"alancing":13070,"scheduled":13071,"eb":13072,"getParameter":13073,"ĠsessionId":13074,"elasticsearch":13075,"ETCH":13076,"Ġguest":13077,"desired":13078,"qr":13079,"(\"_":13080,"ĠTestBuild":13081,"!(":13082,"Ġpfs":13083,"ecs":13084,"Tester":13085,"ĠHttpResponse":13086,"bolt":13087,"Ġsmaller":13088,"DEV":13089,"Hit":13090,"algorithm":13091,"ĠAtomicBoolean":13092,"compact":13093,"2001":13094,"Uid":13095,"Feedback":13096,"Ġuid":13097,"ĠRedis":13098,"CAST":13099,"Ġtrial":13100,"Positions":13101,"chestr":13102,"ResourceType":13103,"Curve":13104,"resample":13105,"WIN":13106,"Ġothers":13107,"Facet":13108,"CEPT":13109,"ĠDetermine":13110,"ComponentTree":13111,"JobState":13112,"fw":13113,"Ġamd":13114,"Cross":13115,"ĠMode":13116,"Ġproceed":13117,"elf":13118,"REQUIRED":13119,"Deserial":13120,"Ġheld":13121,"Ġarbitrary":13122,"ĠgetName":13123,"getTest":13124,"THRES":13125,"languages":13126,"Maybe":13127,"ĠSim":13128,"Less":13129,"quantile":13130,"unsafe":13131,"SECRE":13132,"Disks":13133,"ĠEMPTY":13134,"hover":13135,"}],":13136,"olated":13137,"pants":13138,"\\\",\\\"":13139,"setTimeout":13140,"rowsers":13141,"Ġreach":13142,"finishNode":13143,"ĠMO":13144,"Ġ\"(":13145,"DataObject":13146,"getGroup":13147,"Conversion":13148,"Ġcard":13149,"Ġcomma":13150,"Audio":13151,"getLocation":13152,"concept":13153,"getNetwork":13154,"Ġ-*-":13155,"propName":13156,"Ġassertion":13157,"Ġcome":13158,"HostPort":13159,"Ġgrouping":13160,"DP":13161,"cassandra":13162,"Vpc":13163,"getMock":13164,"getitem":13165,"Mutable":13166,"Estimator":13167,"DeploymentListener":13168,"alchemy":13169,"Fetcher":13170,"Ġembedded":13171,"Rand":13172,"FB":13173,"Ġsink":13174,"linux":13175,"Reactor":13176,"PATTERN":13177,"encrypted":13178,"APPLICATION":13179,"leave":13180,"ĠMatch":13181,"Shards":13182,"Ġlinked":13183,"counters":13184,"ĠUpdates":13185,"Ġcurry":13186,"Ġmigrate":13187,"conflict":13188,"CIMAL":13189,"ĠAmazon":13190,"ĠMut":13191,"MODEL":13192,"ĠDa":13193,"Ġprometheus":13194,"NG":13195,"'--":13196,"getResult":13197,"uju":13198,"Ġcategories":13199,"305":13200,"Ġbean":13201,"Ġassets":13202,"Placeholder":13203,"ĠConstraint":13204,"Ġtimespan":13205,"Ren":13206,"RESPONSE":13207,"][\"":13208,"Ġeth":13209,"Ġpt":13210,"ĠUsing":13211,"']).":13212,"ĠNON":13213,"'>":13214,"Fallback":13215,"ZATION":13216,"Frequency":13217,"tcutil":13218,"Explicit":13219,"Delim":13220,"CacheEntry":13221,"NA":13222,"mk":13223,"Ġsy":13224,"ĠALL":13225,"Ġmajor":13226,"Subchannel":13227,"SdkCloudBackup":13228,"DEF":13229,"bitmap":13230,"GIN":13231,"pans":13232,"Ġrank":13233,"interrupt":13234,"ereg":13235,"ahead":13236,"Glob":13237,"Ġ2000":13238,"guid":13239,"ĠVault":13240,"TEMPLATE":13241,"Closing":13242,"ini":13243,"Ġconcurrency":13244,"TestStep":13245,"Ġprefetch":13246,"Ġaccessed":13247,"yes":13248,"nop":13249,"Ġsubscriber":13250,"SchemaVersion":13251,"orElse":13252,"sBy":13253,"Ġqualified":13254,"vote":13255,"WorkerInfo":13256,"Os":13257,"ised":13258,"ribution":13259,"Truncated":13260,"Materialized":13261,"getConfiguration":13262,"Ġrelevance":13263,"FileUtils":13264,"onAssembly":13265,"Processed":13266,"Ġsaf":13267,"Ġimplode":13268,"RT":13269,"recover":13270,"ĠPass":13271,"Related":13272,"MATCH":13273,"rpcpb":13274,"uction":13275,"ubble":13276,"Encounter":13277,"ivery":13278,"Ġanalysis":13279,"THRESHOLD":13280,"failureLog":13281,"ĠClone":13282,"textarea":13283,"rivileged":13284,"ĠGitHub":13285,"fk":13286,"ĠEC":13287,"EPER":13288,"Comparison":13289,"tgt":13290,"uplicated":13291,"Instrumentation":13292,"Ġ'</":13293,"toUpperCase":13294,"InetAddress":13295,"Ġgrp":13296,"REMOTE":13297,"ying":13298,"Ġprefer":13299,"Ġpersistence":13300,"ibernate":13301,"tegers":13302,":{}":13303,"publisher":13304,"candidate":13305,"Ġseveral":13306,"npy":13307,"ĠTTL":13308,"Ġtraverse":13309,"pillar":13310,"carol":13311,"ĠMenu":13312,"loyee":13313,"Ġreporter":13314,"ServerName":13315,"Yield":13316,"ĠIgniteCheckedException":13317,"ĠUnit":13318,"Ġaway":13319,"NAM":13320,"iaomi":13321,"ĠPart":13322,"Pers":13323,"Ġspecifying":13324,"between":13325,"lengths":13326,"ĠInputStream":13327,"Ġreplicas":13328,"ae":13329,"ĠFrom":13330,"ĠImmutableMap":13331,"alesforce":13332,"900":13333,"Ġplay":13334,"voices":13335,"mPost":13336,"csi":13337,"Ġshown":13338,"ĠComment":13339,"discard":13340,"BC":13341,"AGES":13342,"Ġrestriction":13343,"Ġ[$":13344,"Ġ{\\":13345,"FullName":13346,"getNum":13347,"detect":13348,"INPUT":13349,"534":13350,"Ġmeaning":13351,"ĠjournalContext":13352,"dataType":13353,"ĠMET":13354,"Utilities":13355,"GetString":13356,"Apps":13357,"Satosh":13358,"Ġwarran":13359,"expressions":13360,"!\");":13361,"Lb":13362,"business":13363,"starting":13364,"Ġtimedelta":13365,"iner":13366,"toBytes":13367,"collections":13368,"TURN":13369,"ithmetic":13370,"Ġdefinitions":13371,"Ġtrusted":13372,"Expire":13373,"IX":13374,"Padding":13375,"UX":13376,"ĠEnvironment":13377,"terror":13378,"ĠsetUp":13379,"bp":13380,"Tu":13381,"ĠPoint":13382,"Ġcauses":13383,"Ġprovision":13384,"cosmos":13385,"InstanceOf":13386,"seal":13387,"Ġfit":13388,"ASTORE":13389,"()):":13390,"Defs":13391,"Ġlisting":13392,"Ġcalculated":13393,"Ġteam":13394,"Ġbigint":13395,"Ġtwice":13396,"POSI":13397,"Provenance":13398,"ĠClosure":13399,"Ġ*,":13400,"stdin":13401,"ittle":13402,"MISS":13403,"Linear":13404,"Ġaccounts":13405,"ĠCertificate":13406,"ĠShort":13407,"uli":13408,"EE":13409,"Ġpb":13410,"Utility":13411,"USH":13412,"overlay":13413,"Ġ\"`":13414,"Ġwalk":13415,"Detector":13416,"Meeting":13417,"Ġlnwire":13418,"LIED":13419,"([^/":13420,"Ġonline":13421,"ĠME":13422,"ĠExp":13423,"Ġsucceeded":13424,"curve":13425,"ents":13426,"NotFoundError":13427,"locus":13428,"ĠRoot":13429,"SLASH":13430,"works":13431,"xl":13432,"Ġping":13433,"packet":13434,"Ġctypes":13435,"Ġmultip":13436,"Ġrtol":13437,"axonom":13438,"oct":13439,"roundtrip":13440,"Ġgas":13441,"FromString":13442,"Ġpickle":13443,"polate":13444,"copyOf":13445,"Ġblank":13446,"Ġwarranty":13447,"reated":13448,"Mu":13449,"datepicker":13450,"tect":13451,"Ġil":13452,"oral":13453,"Capture":13454,"Ġsnapshots":13455,":',":13456,"Vol":13457,"Ġorderkey":13458,"ĠExt":13459,"vmMo":13460,"deg":13461,"eer":13462,"Ġ_('":13463,"Jedis":13464,"vertex":13465,"(\"'":13466,"Ġsignals":13467,"Speed":13468,"Multip":13469,"ĠĠĠĠĠĠĠĠĠĠĠĠĠĠĠĠĠĠĠĠĠĠĠĠĠ":13470,"ChanID":13471,"zones":13472,"dispose":13473,"colName":13474,"CUSTOM":13475,"HostName":13476,"ivers":13477,"btn":13478,"busybox":13479,"Ġlooks":13480,"logo":13481,"defs":13482,"ĠVoltDB":13483,"ĠImportError":13484,"hints":13485,"ĠApply":13486,"Ġanchor":13487,":{":13488,"ZED":13489,"Ġdefer":13490,"oi":13491,"ĠbucketName":13492,"Ġraises":13493,"Decorator":13494,"ĠServlet":13495,"COLOR":13496,"Cilium":13497,"compiled":13498,"Ġrout":13499,"ĠSTRING":13500,"\"%":13501,"Ġbackwards":13502,"ErrInvalid":13503,"BOO":13504,"ĠWP":13505,"Ġolder":13506,"Ġpatterns":13507,"Ġplacement":13508,"wk":13509,"Ġetcd":13510,"SUPPORTED":13511,"unrecognized":13512,"ĠBut":13513,"Ġtol":13514,"Measure":13515,"fillna":13516,"ĠAirflow":13517,"matching":13518,"oneOf":13519,"ĠRender":13520,"rpcContext":13521,"hist":13522,"'',":13523,"Recover":13524,"ĠLay":13525,"BAD":13526,"freeze":13527,"imistic":13528,"wfv":13529,"Ġtouch":13530,"forced":13531,"uming":13532,"lanner":13533,"Ġunable":13534,"mxnet":13535,"Ġ([":13536,"getToken":13537,"ascii":13538,"Ġtodo":13539,"ĠSize":13540,"Ġhasn":13541,"Ġlang":13542,"utions":13543,"plotlib":13544,"Ġconsumed":13545,"tec":13546,"Ġoverlap":13547,"ROLE":13548,"HTTPS":13549,"CLUSTER":13550,"PROTO":13551,"Ġdr":13552,"Cosmos":13553,"Play":13554,"Consensus":13555,"Ġ<\"":13556,"Ġplanner":13557,"ĠHiveParser":13558,"KEEPER":13559,"Ġexperiment":13560,"(<":13561,"oton":13562,"Ġoverlay":13563,"']]":13564,"installed":13565,"pended":13566,"Ġswap":13567,"ĠIdentifier":13568,"Ġcy":13569,"ĠBUT":13570,"METRICS":13571,"bars":13572,"HiveConf":13573,"COPY":13574,"DeepEqual":13575,"\\\"\",":13576,"WaitGroup":13577,"Ġcaching":13578,"Ġconfigs":13579,"Ġacquire":13580,"provision":13581,"categorical":13582,"orderkey":13583,"Knowledge":13584,"Benchmark":13585,"Swap":13586,"PFS":13587,"$$":13588,"Got":13589,"ĠDATA":13590,"ĠUnder":13591,"PrivateKey":13592,"{}),":13593,"SHARED":13594,"ĠAdmin":13595,"peers":13596,"paralle":13597,"ensive":13598,"ĠgetCurrent":13599,"MAPPING":13600,"Evaluate":13601,"ĠConverts":13602,"CURRENT":13603,"EXP":13604,"Ġallocate":13605,"ĠAssign":13606,"andwidth":13607,"Ġquantile":13608,"MetricName":13609,"Norm":13610,"adoc":13611,"Med":13612,"Transactional":13613,"Regular":13614,"readFile":13615,"Ġmeasure":13616,"BINARY":13617,"volumes":13618,"mset":13619,"Ġstreaming":13620,"appendChild":13621,"AUTO":13622,"netcdf":13623,"Ġpersistent":13624,"Ġcapture":13625,"Issuer":13626,"Ġencrypted":13627,"ToDelete":13628,"ĠunIndent":13629,"Hoc":13630,"rightness":13631,"handles":13632,"ulus":13633,"fabric":13634,"cmds":13635,"ĠConcurrentHashMap":13636,"StringValue":13637,"ByTag":13638,"Ġonto":13639,"2018":13640,"ĠInd":13641,"Caches":13642,"HOUR":13643,"skipna":13644,"maphore":13645,"011":13646,"Ġsoft":13647,"Unauthorized":13648,"ĠDown":13649,"qp":13650,"setId":13651,"Ġcirc":13652,"Pandas":13653,"Disconnect":13654,"Ġir":13655,"Community":13656,"Ġpf":13657,"GENER":13658,"Ġshadow":13659,"Ġspecification":13660,"Ġimportant":13661,"EventPlugin":13662,"Ġoptionally":13663,"llo":13664,"SegmentName":13665,"bench":13666,"InStream":13667,"Actual":13668,"hop":13669,"ocial":13670,"EventHandler":13671,"ooth":13672,"Ġcombined":13673,"mor":13674,"EXTRA":13675,"party":13676,"MLE":13677,"OOKEEPER":13678,"mtx":13679,"Compress":13680,"BOOLEAN":13681,"Illuminate":13682,"Ġserializer":13683,"SdkVolume":13684,"ĠTR":13685,"Commits":13686,"market":13687,"BufferSize":13688,"flip":13689,"Ġsucceed":13690,"ĠRuntimeError":13691,"Tw":13692,"310":13693,"HOME":13694,"Ġbeh":13695,"Qubit":13696,"Ġnor":13697,"Verification":13698,"inesis":13699,"InitialState":13700,"efficient":13701,"etype":13702,"tracker":13703,"baseFunctionClass":13704,"terminate":13705,"Ġwildcard":13706,"ifth":13707,"RequestOptions":13708,"getRow":13709,"mix":13710,"prot":13711,"ĠDel":13712,"grouped":13713,"PROXY":13714,"setDefault":13715,"1413":13716,"ĠDepend":13717,"RDF":13718,"Ġascending":13719,"abb":13720,"ServiceMethod":13721,"Scopes":13722,"Ġthink":13723,"Ġpip":13724,"TAB":13725,"Ġdiscovery":13726,"Ġpredict":13727,"ĠCHAR":13728,"downstream":13729,"qry":13730,"ena":13731,"Poll":13732,"inx":13733,"Latency":13734,"]'":13735,"vable":13736,"PRECATED":13737,"Ġbc":13738,"Ġ'?":13739,"Ġdatasets":13740,"Problem":13741,"Ġtreated":13742,"iframe":13743,"fact":13744,"Symfony":13745,"antiate":13746,"calcite":13747,"assignment":13748,"Rev":13749,"ĠTIMESTAMP":13750,"Secure":13751,"Eviction":13752,"Ġdisconnect":13753,"Ġpurposes":13754,"Handshake":13755,"ulb":13756,"LEFT":13757,"ĠPhysical":13758,"Coverage":13759,"addTo":13760,"Ġinvoking":13761,"gulp":13762,"iwik":13763,"about":13764,"uru":13765,"Ġaren":13766,"prior":13767,"AMETER":13768,"ĠIMPLIED":13769,"itative":13770,"BadParameter":13771,"anneldb":13772,"TXN":13773,"ĠDoc":13774,"syncthing":13775,"HOSTNAME":13776,"bean":13777,"Ġfraction":13778,"fonts":13779,"ĠDomain":13780,"Ġii":13781,"SECRET":13782,"insensitive":13783,"tg":13784,"haviour":13785,"BlockMaster":13786,"ĠretErr":13787,"mutation":13788,"SED":13789,"getResults":13790,"Was":13791,"Ġends":13792,"ĠIsTrue":13793,"Authorized":13794,"QUEUE":13795,"Ġforms":13796,"consistency":13797,"ulating":13798,"getTreeLocation":13799,"getD":13800,"ĠPaged":13801,"InstanceName":13802,"Ġproviders":13803,"removeClass":13804,"EMIT":13805,"Ġannounce":13806,"ĠMule":13807,"Ġ`%":13808,"Ġedges":13809,"sin":13810,"speed":13811,"hw":13812,"StateStore":13813,"Foundation":13814,":[":13815,"capabilities":13816,"ĠRange":13817,"ara":13818,"ĠNative":13819,"radio":13820,"alone":13821,"ptured":13822,"Ġconcatenated":13823,"Ġmanner":13824,"iloc":13825,"Ġdtypes":13826,"].(":13827,"icast":13828,"ĠAuthors":13829,"Ġtries":13830,"ĠPop":13831,"entral":13832,"Wal":13833,"Sites":13834,"SCORE":13835,"Eq":13836,"COM":13837,"allclose":13838,"----+":13839,"Detect":13840,"getPort":13841,"=$":13842,"ĠHA":13843,"IpAddress":13844,"ivar":13845,"undant":13846,"FREE":13847,"SCHED":13848,"OutOfServiceException":13849,"YNC":13850,"wallet":13851,"plicate":13852,"Ġmounted":13853,"inel":13854,"ĠCompute":13855,"Ġguaranteed":13856,"hyper":13857,"getOptions":13858,"beros":13859,"LISH":13860,"WRITER":13861,"Ġ--------------------------------":13862,"JSONObject":13863,"lain":13864,"RpcContext":13865,"getTarget":13866,"-+":13867,"apps":13868,"2020":13869,"Reload":13870,"tbInfo":13871,"MEN":13872,"profiles":13873,"ĠDSOutOfServiceException":13874,"ARGET":13875,"lug":13876,"BlockStore":13877,"Typed":13878,"Ġtri":13879,"ipc":13880,"ĠCONNE":13881,"Ġinterfaces":13882,"tuples":13883,"Metastore":13884,"probs":13885,"explicit":13886,"populate":13887,"respond":13888,"drag":13889,"FileEntry":13890,"Ġterminated":13891,"(\":":13892,"ĠcolName":13893,"Ġpress":13894,"ILY":13895,"ChannelHandlerContext":13896,"Radius":13897,"tipb":13898,"legationToken":13899,"Dummy":13900,"edBy":13901,"atting":13902,"Ġvalidated":13903,"ĠDaemon":13904,"Ġtmpl":13905,"Caching":13906,"Lon":13907,"avigate":13908,"Poller":13909,"Ġ-->":13910,"()}.":13911,"amodel":13912,"Ġrenew":13913,"Ġtidb":13914,"cart":13915,"Ġseek":13916,"ĠĠĠĠĠĠĠĠĠĠĠĠĠĠĠĠĠĠĠĠĠĠĠĠĠĠĠĠĠĠĠ":13917,"traverse":13918,"subscriber":13919,"Semi":13920,"Cidr":13921,"puppet":13922,"BG":13923,"([(":13924,"Ġstale":13925,"DDLJob":13926,"LB":13927,"SRC":13928,"Ġreceives":13929,"ĠArt":13930,"ĠrpcContext":13931,"MAC":13932,"Ġpercent":13933,"ipfs":13934,"eterministic":13935,"ĠgetRandomUniqueId":13936,"Ġincrease":13937,"())).":13938,"Artifacts":13939,"Limits":13940,"enant":13941,"Ġddl":13942,"Ġthing":13943,"Ġsinon":13944,"ĠDesktop":13945,"elocity":13946,"ĠCOPYRIGHT":13947,"Ġexported":13948,"ĠLIM":13949,"riendly":13950,"Ġconverts":13951,"Whitespace":13952,"ĠPol":13953,"Ġsigma":13954,"Ġexpanded":13955,"Ġgrace":13956,"OID":13957,"ĠLIMIT":13958,"AU":13959,"Ġparallelism":13960,"cedence":13961,"Serialize":13962,"Ġseparated":13963,"globals":13964,"Ġ1234":13965,"separ":13966,"ĠPosition":13967,"Ġpreserve":13968,"Ġreactor":13969,"ĠAccept":13970,"Ġastroid":13971,"pkt":13972,"FIND":13973,"Ġ\"{}":13974,"hrow":13975,"512":13976,"HUFFMAN":13977,"Interaction":13978,"Restricted":13979,"TON":13980,"ands":13981,"Ġdave":13982,"Ġinfluxdb":13983,"Ġaux":13984,"enode":13985,"inja":13986,"rehension":13987,"masked":13988,"Ġtransformed":13989,"FIRST":13990,"getConf":13991,"Encrypted":13992,"10000":13993,"columnName":13994,"Ġrotation":13995,"Affinity":13996,"EasyMock":13997,"GetType":13998,"Complex":13999,"Successfully":14000,"ĠJVM":14001,"ĠLockedInodePath":14002,"Ġcolors":14003,"ĠAnnot":14004,"ClusterConfig":14005,"Ġ[{}":14006,"FICATION":14007,"nat":14008,"country":14009,"Stamp":14010,"xyz":14011,"ĠScan":14012,"isode":14013,"ĠRemoves":14014,"Solution":14015,"ĠINTEGER":14016,"UTION":14017,"uzz":14018,"getNext":14019,"Delegate":14020,"ITS":14021,"unctools":14022,"eled":14023,"Ġsweep":14024,"Ġreconnect":14025,"Ġ\"@":14026,"SAVE":14027,"indexed":14028,"ĠThen":14029,"conditional":14030,"dures":14031,"around":14032,"dup":14033,"\">;":14034,"Ġaccumulate":14035,"ĠĠĠĠĠĠĠĠĠĠĠĠĠĠĠĠĠĠĠĠĠĠĠĠĠĠ":14036,"RAT":14037,"ĠLIMITED":14038,"esh":14039,"Away":14040,"Ġsensor":14041,"Ġota":14042,"Poly":14043,"ssimistic":14044,"ĠAtomicReference":14045,"cedures":14046,"Ġratio":14047,"Anchor":14048,"Ġattempting":14049,"Ġ?)":14050,"Stdin":14051,"subs":14052,"Ġmeasurement":14053,"Ġsmart":14054,"ech":14055,"{\\":14056,"tblName":14057,"Ġce":14058,"USED":14059,"Ġparticip":14060,"CMS":14061,"Ġomero":14062,"ĠDest":14063,"hance":14064,"Ġestablis":14065,"ptned":14066,"wc":14067,"Ġfetched":14068,"ĠHEAD":14069,"modifiable":14070,"Ġsay":14071,"BUILD":14072,"Bug":14073,"Ġjoined":14074,"Delivery":14075,"CN":14076,"Snapshots":14077,"batches":14078,"Ġindexers":14079,"Ġquick":14080,"brightgreen":14081,"TaskInstance":14082,"topLevel":14083,"getLog":14084,"ĠDirect":14085,"ĠLIABILITY":14086,"OTA":14087,"bat":14088,"Incorrect":14089,"Ġcomparator":14090,"owned":14091,"Ġleak":14092,"both":14093,"ĠTrigger":14094,"ĠReturnType":14095,"getView":14096,"enticator":14097,"Ġ`\"":14098,"Druid":14099,"Ġdates":14100,"Ġsecure":14101,"ĠMySQL":14102,"swers":14103,"innerHTML":14104,"Ġls":14105,"hcp":14106,"geometry":14107,"Ġenterprise":14108,"ĠPrepare":14109,"Ġvf":14110,"Ġhighest":14111,"etermines":14112,"Ġcty":14113,"gramm":14114,"setContext":14115,"']));":14116,"bids":14117,"ServiceConfig":14118,"errMsg":14119,"Ġhist":14120,"rgb":14121,"Ġkubernetes":14122,"Ġunsigned":14123,"Ġsynchronous":14124,"detach":14125,"Ġunused":14126,"Ġdiag":14127,"TRUE":14128,"Calling":14129,"LER":14130,"Gas":14131,"intValue":14132,"icol":14133,"doOn":14134,"Ġdebugging":14135,"Ġrp":14136,"Ġbreakpoint":14137,"writable":14138,"manage":14139,"COMPLETE":14140,"LIVE":14141,"ĠFunc":14142,"SECUR":14143,"Ġblog":14144,"Ġdeclared":14145,"writeConcern":14146,"Ġmotion":14147,"vitational":14148,"lu":14149,"Terminate":14150,"Minimum":14151,"Coord":14152,"ENTRY":14153,"Subquery":14154,"Ġdigits":14155,"380":14156,"Respon":14157,"wever":14158,"tcd":14159,"Ġharmony":14160,"Ġrecursively":14161,"+/**":14162,"Ġanimation":14163,"ĠKafka":14164,"SECURITY":14165,"coordinates":14166,"Ġcapabilities":14167,"ĠServiceBus":14168,"Privileges":14169,"edges":14170,"ĠUtils":14171,"ĠConnectable":14172,"Ġ------------------------------------------------------------------------":14173,"Ġsynchron":14174,"abcdef":14175,"recv":14176,"vention":14177,"codesnippet":14178,"StringVar":14179,"fold":14180,"[][]":14181,"Ġ_(\"":14182,"Chrome":14183,"failures":14184,"Broker":14185,"standing":14186,"Walk":14187,"Iops":14188,"indexName":14189,".\".":14190,"CREATED":14191,"WT":14192,"ERIC":14193,"INCT":14194,"Meter":14195,"LF":14196,"}')":14197,"Ġaverage":14198,"tlcs":14199,"voker":14200,"ĠDisk":14201,"Ġunset":14202,"ĠOnce":14203,"Parameterized":14204,"EXPECT":14205,"Ġprox":14206,"CF":14207,"Assets":14208,"Ġfloor":14209,"Ġdecor":14210,"ides":14211,"Itoa":14212,"shardings":14213,">';":14214,"clarations":14215,"2019":14216,"combined":14217,"Ġrect":14218,"Ġallocations":14219,"white":14220,"ares":14221,"Ġpercentage":14222,"overrides":14223,"gmf":14224,"dotcms":14225,"Preparer":14226,"Ġxarray":14227,"Ġhours":14228,"hostLog":14229,"Ġwww":14230,"ĠtestAccPreCheck":14231,"Tail":14232,"klass":14233,"ĠLookup":14234,"symbols":14235,"tau":14236,"symbolic":14237,"Ġmodification":14238,"shardingsphere":14239,"Ġbs":14240,"ĠCannot":14241,"Ġborder":14242,"crimin":14243,"Ġevals":14244,"markup":14245,"Ġ__(":14246,"getItem":14247,"FETCH":14248,"Ġwallet":14249,"AndAssert":14250,"getCause":14251,"scene":14252,"GetObject":14253,"Ġdirty":14254,"etag":14255,"Membership":14256,"Ġrequirements":14257,"rating":14258,"Ġ512":14259,"<$":14260,"Possible":14261,"gd":14262,"IGH":14263,"fac":14264,"LIB":14265,"Ġtrust":14266,"ĠDefaultDimensionSpec":14267,"mium":14268,"addChild":14269,"Ġ\").":14270,"suc":14271,"()},":14272,"ifted":14273,"iB":14274,"bold":14275,"Ġvocab":14276,"Ġsid":14277,"ĠJedis":14278,"Ġexpiry":14279,"Ġsessions":14280,")()":14281,"nano":14282,"Ġrepresented":14283,"AWSS":14284,"Ġsorting":14285,"responses":14286,"ĠSX":14287,"addon":14288,"Ġtrip":14289,"Associ":14290,"toml":14291,"draft":14292,"Ġpc":14293,"visited":14294,"Malformed":14295,"Ġpixel":14296,"Ġplain":14297,"Ġbecomes":14298,"Decor":14299,"Ġbson":14300,"Revoke":14301,"handled":14302,"ĠADD":14303,"setHeader":14304,"ĠByteBuf":14305,"RECEIVE":14306,"readcr":14307,"Ġfiltering":14308,"OfWeek":14309,"curry":14310,"UNDER":14311,"ĠURLs":14312,"startNode":14313,"FloatTensor":14314,"ĠStep":14315,"ĠFUN":14316,"FAMIL":14317,"FAMILY":14318,"Cron":14319,"DBName":14320,"ByKey":14321,"OfYear":14322,"PFSInput":14323,"Ġbeta":14324,"Ġinterrupted":14325,"Ġcoding":14326,")/,":14327,"Deprecation":14328,"IMAGE":14329,"cakephp":14330,"semble":14331,"Statuses":14332,"Concat":14333,"chanism":14334,"selves":14335,"ETag":14336,"Ġusually":14337,"gular":14338,"ENTITY":14339,"'})":14340,"exchange":14341,"Boundary":14342,"Prom":14343,"ĠEmpty":14344,"getIn":14345,"instr":14346,"Ġreported":14347,"Ġfilled":14348,"Ġslug":14349,"Ġassumed":14350,"ĠDim":14351,"eff":14352,"TempDir":14353,"BL":14354,"Bg":14355,"keeper":14356,";</":14357,"ĠMember":14358,"XWiki":14359,"locate":14360,"ColumnNames":14361,"Ġsd":14362,"Ġtested":14363,"cookies":14364,"imers":14365,"bridge":14366,"imize":14367,"INTERNAL":14368,"Ġaz":14369,"AdHoc":14370,"trainer":14371,"ATTR":14372,"ĠgRPC":14373,"Plus":14374,"zed":14375,"Quantity":14376,"Commitment":14377,"vmId":14378,"bos":14379,"),(":14380,"ĠtestAccCheck":14381,"ĠSecret":14382,"clazz":14383,"WithLabel":14384,"Ġcum":14385,"Caller":14386,"uids":14387,"uitable":14388,"\"},\"":14389,"ĠKeep":14390,"Ġasynchronously":14391,"sessions":14392,"Ġnat":14393,"subclass":14394,"Large":14395,"offer":14396,"Ġmargin":14397,"OutPoint":14398,"jobId":14399,"ess":14400,"('{":14401,"ĠPerform":14402,"Fault":14403,"uthy":14404,"StoreFile":14405,"grafana":14406,"oice":14407,"Ġexchange":14408,"ĠGC":14409,"MQ":14410,
[...]
